{"version":"1.0","truncation":null,"padding":null,"added_tokens":[{"id":0,"special":true,"content":"[UNK]","single_word":false,"lstrip":false,"rstrip":false,"normalized":false},{"id":1,"special":true,"content":"[CLS]","single_word":false,"lstrip":false,"rstrip":false,"normalized":false},{"id":2,"special":true,"content":"[SEP]","single_word":false,"lstrip":false,"rstrip":false,"normalized":false},{"id":3,"special":true,"content":"[PAD]","single_word":false,"lstrip":false,"rstrip":false,"normalized":false},{"id":4,"special":true,"content":"[MASK]","single_word":false,"lstrip":false,"rstrip":false,"normalized":false}],"normalizer":null,"pre_tokenizer":{"type":"Whitespace"},"post_processor":null,"decoder":null,"model":{"type":"BPE","dropout":null,"unk_token":"[UNK]","continuing_subword_prefix":null,"end_of_word_suffix":null,"fuse_unk":false,"vocab":{"[UNK]":0,"[CLS]":1,"[SEP]":2,"[PAD]":3,"[MASK]":4,"!":5,"(":6,")":7,",":8,"-":9,".":10,"1":11,"2":12,"5":13,"6":14,"8":15,":":16,";":17,"?":18,"A":19,"B":20,"C":21,"D":22,"E":23,"F":24,"G":25,"H":26,"I":27,"J":28,"K":29,"L":30,"M":31,"N":32,"O":33,"P":34,"R":35,"S":36,"T":37,"U":38,"V":39,"W":40,"Y":41,"Z":42,"a":43,"b":44,"c":45,"d":46,"e":47,"f":48,"g":49,"h":50,"i":51,"j":52,"k":53,"l":54,"m":55,"n":56,"o":57,"p":58,"q":59,"r":60,"s":61,"t":62,"u":63,"v":64,"w":65,"x":66,"y":67,"z":68,"à":69,"é":70,"ê":71,"—":72,"‘":73,"’":74,"“":75,"”":76,"he":77,"in":78,"an":79,"re":80,"the":81,"ou":82,"on":83,"er":84,"th":85,"en":86,"at":87,"to":88,"is":89,"as":90,"ed":91,"of":92,"ing":93,"and":94,"be":95,"ar":96,"it":97,"ll":98,"or":99,"ha":100,"le":101,"no":102,"her":103,"st":104,"se":105,"om":106,"ce":107,"ly":108,"ch":109,"ve":110,"was":111,"li":112,"ion":113,"you":114,"wi":115,"hi":116,"ent":117,"ver":118,"ld":119,"for":120,"de":121,"not":122,"that":123,"ne":124,"gh":125,"she":126,"me":127,"we":128,"su":129,"ut":130,"ter":131,"al":132,"his":133,"ould":134,"ther":135,"with":136,"ct":137,"ay":138,"all":139,"ir":140,"ss":141,"had":142,"Mr":143,"ad":144,"id":145,"ho":146,"so":147,"con":148,"fe":149,"ri":150,".”":151,"him":152,"ro":153,"ab":154,"ag":155,"our":156,"have":157,"am":158,"mo":159,"pe":160,"un":161,"ght":162,"very":163,"po":164,"ain":165,"but":166,"es":167,"my":168,"com":169,"ation":170,"liz":171,"Eliz":172,"Eliza":173,"mu":174,"by":175,"sa":176,"lo":177,"ti":178,"beth":179,"Elizabeth":180,"one":181,"qu":182,"lf":183,"are":184,"ac":185,"ke":186,"whi":187,"ex":188,"were":189,"hat":190,"now":191,"do":192,"ur":193,"ard":194,"te":195,"rom":196,"any":197,"self":198,"which":199,"per":200,"end":201,"The":202,"could":203,"pre":204,"been":205,"ment":206,"able":207,"cy":208,"your":209,"they":210,"will":211,"whe":212,"from":213,"ome":214,"them":215,"if":216,"would":217,"ow":218,"ance":219,"ic":220,"thing":221,"out":222,"od":223,"who":224,"what":225,"red":226,"dis":227,"ine":228,"fo":229,"im":230,"Dar":231,"Darcy":232,"go":233,",”":234,"af":235,"their":236,"par":237,"et":238,"said":239,"know":240,"ant":241,"pro":242,"us":243,"thou":244,"man":245,"ul":246,"this":247,"ma":248,"some":249,"ong":250,"ate":251,"such":252,"si":253,"there":254,"ley":255,"sis":256,"ity":257,"fa":258,"mi":259,"ind":260,"sh":261,"ap":262,"nd":263,"ved":264,"way":265,"ple":266,"Mrs":267,"net":268,"itt":269,"ast":270,"more":271,"Ben":272,"au":273,"other":274,"see":275,"Bennet":276,"than":277,"She":278,"ction":279,"much":280,"ous":281,"But":282,"can":283,"iss":284,"fore":285,"Bing":286,"Bingley":287,"ane":288,"ive":289,"ra":290,"must":291,"hap":292,"vi":293,"di":294,"ure":295,"sister":296,"when":297,"ence":298,"age":299,"ok":300,"ady":301,"Jane":302,"Miss":303,"ge":304,"ven":305,"pl":306,"every":307,"ally":308,"gre":309,"did":310,"time":311,"He":312,"ink":313,"up":314,"ving":315,"most":316,"It":317,"should":318,"?”":319,"Co":320,"mar":321,"day":322,"ry":323,"ak":324,"ert":325,"ily":326,"ten":327,"el":328,"wis":329,"ill":330,"alk":331,"spe":332,"never":333,"est":334,"think":335,"has":336,"att":337,"ble":338,"ob":339,"ci":340,"med":341,"happ":342,"pleas":343,"co":344,"herself":345,"soon":346,"tter":347,"ite":348,"ort":349,"again":350,"before":351,"je":352,"ins":353,"wor":354,"pr":355,"int":356,"ick":357,"only":358,"You":359,"led":360,"ser":361,"urn":362,"ner":363,"though":364,"say":365,"ham":366,"well":367,"sp":368,"sha":369,"sent":370,"after":371,"might":372,"good":373,"fri":374,"hed":375,"nt":376,"how":377,"own":378,"cas":379,"op":380,"turn":381,"Wick":382,"fi":383,"Wickham":384,"pt":385,"ittle":386,"der":387,"may":388,"part":389,"little":390,"wn":391,"pli":392,"ru":393,"ried":394,"ness":395,"pos":396,"friend":397,"Coll":398,"look":399,"great":400,"ame":401,"lie":402,"ject":403,"Collins":404,"like":405,"ough":406,"being":407,"ings":408,"fam":409,"ans":410,"sure":411,"ju":412,"ng":413,"feel":414,"Ly":415,"ever":416,"dia":417,"Lydia":418,"fort":419,"cted":420,"off":421,"ary":422,"augh":423,"without":424,"sc":425,"nothing":426,"make":427,"long":428,"fir":429,"ward":430,"then":431,"cl":432,"ound":433,"room":434,"ach":435,"even":436,"ies":437,"hear":438,"less":439,"ertain":440,"ass":441,"shall":442,"its":443,"mb":444,"young":445,"And":446,"wo":447,"dear":448,"family":449,"over":450,"belie":451,"hope":452,"cont":453,"ful":454,"lt":455,"shi":456,"ree":457,"gr":458,"add":459,"gi":460,"bo":461,"cou":462,"into":463,"ated":464,"thought":465,"ear":466,"iness":467,"manner":468,"first":469,"too":470,"bour":471,"give":472,"cu":473,"form":474,"Lady":475,"mor":476,"ouse":477,"mother":478,"father":479,"aughter":480,"ave":481,"ather":482,"ced":483,"ise":484,"press":485,"wever":486,"certain":487,"daughter":488,"sup":489,"letter":490,"new":491,"come":492,"two":493,"wer":494,"house":495,"however":496,"walk":497,"light":498,"himself":499,"Cather":500,"last":501,"sat":502,"made":503,"Catherine":504,"ions":505,"fere":506,"They":507,"ious":508,"ish":509,"ssi":510,"sur":511,"possi":512,"ways":513,"plied":514,"eld":515,"jo":516,"port":517,"eng":518,"cour":519,"ked":520,"rece":521,"parti":522,"char":523,"always":524,"My":525,"wh":526,"beg":527,"about":528,"ond":529,"comm":530,"away":531,"many":532,"just":533,"pass":534,"reas":535,"sol":536,"affe":537,"sub":538,"lad":539,"ning":540,"appe":541,"cannot":542,"wish":543,"cle":544,"son":545,"ted":546,"talk":547,"riage":548,"attent":549,"In":550,"gn":551,"sen":552,"expe":553,"came":554,"gent":555,"iner":556,"ined":557,"vis":558,"rest":559,"return":560,"ared":561,"br":562,"ang":563,"under":564,"ither":565,"oc":566,"ress":567,"enough":568,"ause":569,"mis":570,"read":571,"pleasure":572,"kind":573,"hen":574,"unt":575,"saw":576,"Long":577,"du":578,"iz":579,"ni":580,"ose":581,"replied":582,"felt":583,"where":584,"Ch":585,"tt":586,"ctly":587,"tell":588,"speak":589,"!”":590,"We":591,"lly":592,"love":593,"wards":594,"Gard":595,"No":596,"dea":597,"acqu":598,"possible":599,"Gardiner":600,"vour":601,"inde":602,"rel":603,"cess":604,"express":605,"present":606,"often":607,"point":608,"vil":609,"ake":610,"il":611,"ery":612,"ener":613,"tem":614,"side":615,"count":616,"Liz":617,"lady":618,"zy":619,"quite":620,"Lizzy":621,"ace":622,"bro":623,"done":624,"tance":625,"vo":626,"ought":627,"pose":628,"myself":629,"ended":630,"happy":631,"subject":632,"Oh":633,"pri":634,"ately":635,"cul":636,"better":637,"gentle":638,"Char":639,"cried":640,"gu":641,"ice":642,"une":643,"inst":644,"ody":645,"acquain":646,"If":647,"vent":648,"wr":649,"heard":650,"mber":651,"ived":652,"mat":653,"having":654,"spect":655,"call":656,"ef":657,"cons":658,"lot":659,"bourn":660,"Longbourn":661,"Her":662,"body":663,"ged":664,"king":665,"tru":666,"want":667,"really":668,"till":669,"iffere":670,"cause":671,"ations":672,"feelings":673,"aunt":674,"gener":675,"take":676,"ince":677,"believe":678,"satis":679,"Charlot":680,"Charlotte":681,"Lu":682,"ey":683,"get":684,"hand":685,"mom":686,"nce":687,"vant":688,"went":689,"itu":690,"whom":691,"reason":692,"Lucas":693,"moment":694,"Ne":695,"llow":696,"irl":697,"affection":698,"What":699,"girl":700,"wom":701,"vers":702,"ford":703,"ably":704,"ep":705,"iam":706,"sto":707,"inter":708,"place":709,"brother":710,"His":711,"When":712,"ess":713,"tak":714,"does":715,"down":716,"particul":717,"particular":718,"stand":719,"exce":720,"anything":721,"whole":722,"morning":723,"seen":724,"field":725,"looked":726,"val":727,"inu":728,"ised":729,"word":730,"shire":731,"nat":732,"os":733,"term":734,"ider":735,"agree":736,"haps":737,"sisters":738,"opin":739,"indeed":740,"ck":741,"din":742,"far":743,"mon":744,"here":745,"requ":746,"ained":747,"ety":748,"therefore":749,"ctions":750,"civil":751,"medi":752,"continu":753,"car":754,"eas":755,"found":756,"mind":757,"xt":758,"half":759,"delight":760,"evening":761,"ladies":762,"appear":763,"cer":764,"men":765,"nor":766,"since":767,"ton":768,"um":769,"ves":770,"therfield":771,"happiness":772,"consider":773,"Netherfield":774,"ref":775,"ened":776,"toge":777,"still":778,"lic":779,"uncle":780,"immedi":781,"itty":782,"answer":783,"grat":784,"together":785,"Kitty":786,"ft":787,"find":788,"spo":789,"twe":790,"ud":791,"str":792,"few":793,"right":794,"comp":795,"added":796,"surpr":797,"gard":798,"told":799,"chi":800,"acter":801,"character":802,"attention":803,"rely":804,"next":805,"same":806,"something":807,"smi":808,"oub":809,"obser":810,"world":811,"both":812,"occas":813,"opinion":814,"How":815,"This":816,"coming":817,"while":818,"perfe":819,"follow":820,"prob":821,"marriage":822,"posed":823,"ship":824,"expect":825,"home":826,"lone":827,"town":828,"towards":829,"sett":830,"ently":831,"convers":832,"dist":833,"known":834,"seemed":835,"upon":836,"lonel":837,"hour":838,"reco":839,"ished":840,"least":841,"left":842,"allow":843,"There":844,"mention":845,"favour":846,"marry":847,"certainly":848,"doub":849,"gone":850,"year":851,"ition":852,"leave":853,"person":854,"ments":855,"sil":856,"woman":857,"cir":858,"resol":859,"beha":860,"concer":861,"Colonel":862,"course":863,"acquaintance":864,"For":865,"each":866,"yet":867,"respect":868,"tempt":869,"air":870,"hard":871,"tre":872,"use":873,"ited":874,"desi":875,"married":876,"received":877,"passed":878,"night":879,"conversation":880,"cous":881,"hon":882,"lu":883,"three":884,"because":885,"betwe":886,"cho":887,"ack":888,"seeing":889,"immediately":890,"occasion":891,"between":892,"aw":893,"either":894,"fu":895,"fic":896,"min":897,"ol":898,"inv":899,"these":900,"lle":901,"mean":902,"whose":903,"object":904,"began":905,"ifferent":906,"agreeable":907,"aut":908,"knew":909,"ers":910,"almost":911,"conne":912,"comfort":913,"ances":914,"given":915,"As":916,"Mery":917,"Pe":918,"Yes":919,"pur":920,"ran":921,"once":922,"life":923,"meet":924,"means":925,"perhaps":926,"going":927,"dire":928,"party":929,"concern":930,"Meryton":931,"won":932,"enqu":933,"short":934,"visit":935,"Lond":936,"band":937,"equ":938,"gave":939,"hus":940,"hes":941,"another":942,"regard":943,"took":944,"row":945,"knowled":946,"rather":947,"viour":948,"friends":949,"behaviour":950,"London":951,"pat":952,"inte":953,"rep":954,"those":955,"ingly":956,"let":957,"stay":958,"quest":959,"times":960,"understand":961,"husband":962,"That":963,"Will":964,"Your":965,"ied":966,"ps":967,"inc":968,"ret":969,"ute":970,"advant":971,"power":972,"whether":973,"others":974,"fortune":975,"mberley":976,"taken":977,"Pemberley":978,"lat":979,"ty":980,"live":981,"aged":982,"eyes":983,"Sir":984,"To":985,"cor":986,"ek":987,"igh":988,"pain":989,"prom":990,"tra":991,"arm":992,"cept":993,"determ":994,"neigh":995,"persu":996,"obli":997,"against":998,"spir":999,"general":1000,"continued":1001,"settled":1002,"circu":1003,"interest":1004,"neighbour":1005,"ople":1006,"arri":1007,"itation":1008,"necess":1009,"yourself":1010,"fied":1011,"honour":1012,"circum":1013,"Ros":1014,"bus":1015,"fer":1016,"idea":1017,"lis":1018,"sequ":1019,"suf":1020,"used":1021,"fair":1022,"daughters":1023,"cousin":1024,"Rosings":1025,"bre":1026,"den":1027,"ready":1028,"adm":1029,"account":1030,"else":1031,"former":1032,"suppose":1033,"sense":1034,"back":1035,"care":1036,"lves":1037,"sir":1038,"rem":1039,"beaut":1040,"les":1041,"wife":1042,"week":1043,"people":1044,"scar":1045,"anger":1046,"gentleman":1047,"perfectly":1048,"circumst":1049,"rough":1050,"repe":1051,"cely":1052,"high":1053,"near":1054,"accept":1055,"antly":1056,"heart":1057,"ility":1058,"doubt":1059,"hardly":1060,"listen":1061,"anx":1062,"ster":1063,"selves":1064,"consequ":1065,"aston":1066,"manners":1067,"returned":1068,"pride":1069,"civility":1070,"William":1071,"business":1072,"At":1073,"Do":1074,"cur":1075,"lp":1076,"through":1077,"desc":1078,"door":1079,"longer":1080,"walked":1081,"ishment":1082,"girls":1083,"carriage":1084,"recolle":1085,"wonder":1086,"ball":1087,"clo":1088,"different":1089,"ece":1090,"ith":1091,"pa":1092,"usu":1093,"endea":1094,"ating":1095,"tor":1096,"hood":1097,"conv":1098,"disap":1099,"imag":1100,"wise":1101,"turned":1102,"offic":1103,"expected":1104,"called":1105,"handsome":1106,"spoke":1107,"advantage":1108,"scarcely":1109,"On":1110,"act":1111,"che":1112,"fast":1113,"iable":1114,"pend":1115,"situ":1116,"ren":1117,"suc":1118,"sum":1119,"conf":1120,"fear":1121,"compl":1122,"impossible":1123,"got":1124,"sible":1125,"pleased":1126,"likely":1127,"joy":1128,"ladyship":1129,"Hert":1130,"gra":1131,"hum":1132,"ped":1133,"put":1134,"sho":1135,"table":1136,"head":1137,"help":1138,"incl":1139,"asked":1140,"best":1141,"compli":1142,"ached":1143,"peri":1144,"seem":1145,"play":1146,"everything":1147,"open":1148,"feeling":1149,"country":1150,"itude":1151,"fordshire":1152,"Hertfordshire":1153,"bl":1154,"dare":1155,"dra":1156,"ered":1157,"ient":1158,"ting":1159,"wa":1160,"inced":1161,"met":1162,"prevent":1163,"import":1164,"wished":1165,"child":1166,"Bour":1167,"Mary":1168,"With":1169,"cap":1170,"em":1171,"ign":1172,"mas":1173,"name":1174,"pi":1175,"tr":1176,"vid":1177,"ange":1178,"oud":1179,"assure":1180,"bey":1181,"ceed":1182,"hill":1183,"raid":1184,"address":1185,"engaged":1186,"talking":1187,"Forster":1188,"minut":1189,"spirits":1190,"convinced":1191,"Bourgh":1192,"Af":1193,"glad":1194,"mer":1195,"sor":1196,"sort":1197,"inform":1198,"reat":1199,"iting":1200,"ses":1201,"decl":1202,"conce":1203,"proper":1204,"making":1205,"coun":1206,"talked":1207,"gentlemen":1208,"write":1209,"satisfied":1210,"month":1211,"strong":1212,"enquir":1213,"situation":1214,"ew":1215,"frequ":1216,"ts":1217,"bear":1218,"cond":1219,"fect":1220,"wered":1221,"urst":1222,"afraid":1223,"thank":1224,"view":1225,"believed":1226,"engage":1227,"brought":1228,"matter":1229,"natur":1230,"dinner":1231,"latter":1232,"minutes":1233,"After":1234,"Fit":1235,"fin":1236,"pra":1237,"zwill":1238,"ination":1239,"entered":1240,"ager":1241,"amiable":1242,"jud":1243,"ference":1244,"Well":1245,"surprise":1246,"fully":1247,"Fitzwill":1248,"Fitzwilliam":1249,"cred":1250,"hur":1251,"sm":1252,"tri":1253,"oured":1254,"eness":1255,"ari":1256,"admi":1257,"soci":1258,"rodu":1259,"among":1260,"acknowled":1261,"keep":1262,"introdu":1263,"serious":1264,"saying":1265,"surprised":1266,"distress":1267,"years":1268,"necessary":1269,"usual":1270,"disappoint":1271,"beyond":1272,"Hurst":1273,"Phill":1274,"ai":1275,"ched":1276,"eager":1277,"four":1278,"fine":1279,"ler":1280,"rup":1281,"sand":1282,"xed":1283,"reme":1284,"formed":1285,"deal":1286,"depend":1287,"also":1288,"low":1289,"ending":1290,"themselves":1291,"thousand":1292,"everybody":1293,"mark":1294,"wishes":1295,"pleasant":1296,"case":1297,"position":1298,"answered":1299,"silence":1300,"invitation":1301,"sorry":1302,"small":1303,"Philli":1304,"dan":1305,"sence":1306,"rew":1307,"real":1308,"sec":1309,"set":1310,"neither":1311,"poor":1312,"Their":1313,"appro":1314,"ures":1315,"looking":1316,"ounds":1317,"speaking":1318,"appearance":1319,"determined":1320,"consequence":1321,"endeavour":1322,"credit":1323,"cing":1324,"dance":1325,"fan":1326,"hy":1327,"ig":1328,"lar":1329,"leng":1330,"ask":1331,"assu":1332,"enti":1333,"forward":1334,"merely":1335,"ality":1336,"within":1337,"uring":1338,"sometimes":1339,"afterwards":1340,"news":1341,"charm":1342,"sensible":1343,"stood":1344,"particularly":1345,"length":1346,"aim":1347,"ue":1348,"ities":1349,"liked":1350,"usion":1351,"vice":1352,"attach":1353,"servant":1354,"offer":1355,"book":1356,"why":1357,"appeared":1358,"niece":1359,"instantly":1360,"resolved":1361,"design":1362,"equal":1363,"officers":1364,"master":1365,"society":1366,"Phillips":1367,"actly":1368,"ead":1369,"hor":1370,"ience":1371,"ling":1372,"laugh":1373,"second":1374,"ney":1375,"alone":1376,"unity":1377,"acy":1378,"exactly":1379,"face":1380,"itting":1381,"days":1382,"tenance":1383,"cip":1384,"prud":1385,"opport":1386,"claim":1387,"courage":1388,"visi":1389,"bring":1390,"kindness":1391,"compan":1392,"neighbourhood":1393,"arrival":1394,"break":1395,"admir":1396,"repeated":1397,"compliment":1398,"countenance":1399,"cid":1400,"dif":1401,"ele":1402,"five":1403,"ight":1404,"slight":1405,"ured":1406,"ually":1407,"ying":1408,"resent":1409,"recomm":1410,"attempt":1411,"toler":1412,"ising":1413,"sever":1414,"dered":1415,"abo":1416,"lost":1417,"tim":1418,"expl":1419,"obje":1420,"worth":1421,"younger":1422,"early":1423,"curi":1424,"joined":1425,"Not":1426,"exceed":1427,"words":1428,"chief":1429,"smile":1430,"luck":1431,"reply":1432,"obliged":1433,"astonishment":1434,"draw":1435,"opportunity":1436,"ding":1437,"ken":1438,"show":1439,"intell":1440,"remo":1441,"remark":1442,"lear":1443,"sted":1444,"nest":1445,"meant":1446,"ution":1447,"pol":1448,"things":1449,"whatever":1450,"giving":1451,"earnest":1452,"receive":1453,"vol":1454,"ifference":1455,"satisfa":1456,"mentioned":1457,"increas":1458,"utely":1459,"circumstances":1460,"highly":1461,"assured":1462,"Let":1463,"Th":1464,"event":1465,"intim":1466,"ene":1467,"assur":1468,"arr":1469,"deser":1470,"need":1471,"already":1472,"aded":1473,"sole":1474,"condu":1475,"oney":1476,"extra":1477,"tered":1478,"impro":1479,"knowing":1480,"sign":1481,"itted":1482,"prof":1483,"truth":1484,"interrup":1485,"easily":1486,"refle":1487,"company":1488,"observed":1489,"hours":1490,"allowed":1491,"question":1492,"beauty":1493,"anxious":1494,"success":1495,"information":1496,"attachment":1497,"satisfaction":1498,"ade":1499,"ber":1500,"iving":1501,"lour":1502,"money":1503,"sing":1504,"wat":1505,"thus":1506,"enjoy":1507,"assis":1508,"stair":1509,"dece":1510,"wel":1511,"absence":1512,"ago":1513,"uns":1514,"compre":1515,"doing":1516,"ively":1517,"cold":1518,"prin":1519,"fortun":1520,"sche":1521,"supposed":1522,"walking":1523,"affected":1524,"attentions":1525,"expressed":1526,"void":1527,"except":1528,"silent":1529,"choose":1530,"imagine":1531,"importance":1532,"breakfast":1533,"Had":1534,"Huns":1535,"dread":1536,"dden":1537,"during":1538,"gri":1539,"van":1540,"hend":1541,"indo":1542,"regre":1543,"regi":1544,"stru":1545,"living":1546,"sudden":1547,"ross":1548,"comple":1549,"quar":1550,"anybody":1551,"prett":1552,"ified":1553,"wholly":1554,"disposition":1555,"affair":1556,"attended":1557,"greater":1558,"thoughts":1559,"join":1560,"begin":1561,"occur":1562,"temper":1563,"guard":1564,"acquainted":1565,"effect":1566,"gratul":1567,"followed":1568,"humour":1569,"children":1570,"fancy":1571,"entirely":1572,"visitor":1573,"admiration":1574,"exceedingly":1575,"conduct":1576,"scheme":1577,"Hunsford":1578,"regiment":1579,"pretty":1580,"Bright":1581,"Der":1582,"Is":1583,"aving":1584,"avoid":1585,"bit":1586,"cation":1587,"drew":1588,"gy":1589,"hu":1590,"phe":1591,"pounds":1592,"send":1593,"ouble":1594,"semb":1595,"degre":1596,"nephe":1597,"susp":1598,"alth":1599,"concl":1600,"moti":1601,"byshire":1602,"anyone":1603,"perce":1604,"happened":1605,"spite":1606,"hearing":1607,"common":1608,"relations":1609,"match":1610,"wanted":1611,"nature":1612,"easy":1613,"gratitude":1614,"purpose":1615,"persuaded":1616,"remain":1617,"inclination":1618,"emp":1619,"frequently":1620,"natural":1621,"ailed":1622,"large":1623,"curios":1624,"stairs":1625,"Brighton":1626,"Derbyshire":1627,"nephew":1628,"Ge":1629,"apo":1630,"bility":1631,"evid":1632,"ide":1633,"rid":1634,"sion":1635,"wed":1636,"relie":1637,"step":1638,"change":1639,"libr":1640,"confe":1641,"conside":1642,"congratul":1643,"espe":1644,"sake":1645,"disco":1646,"dislike":1647,"impat":1648,"ously":1649,"pleasing":1650,"work":1651,"intent":1652,"fortnight":1653,"hopes":1654,"relation":1655,"delighted":1656,"following":1657,"probably":1658,"marrying":1659,"desire":1660,"remained":1661,"prevented":1662,"conceal":1663,"enquiries":1664,"judge":1665,"admire":1666,"eleg":1667,"several":1668,"comprehend":1669,"degree":1670,"curiosity":1671,"Geor":1672,"library":1673,"confess":1674,"considered":1675,"Every":1676,"From":1677,"Par":1678,"Why":1679,"emb":1680,"evil":1681,"ired":1682,"jour":1683,"run":1684,"rap":1685,"warm":1686,"windo":1687,"inf":1688,"state":1689,"absol":1690,"ages":1691,"compar":1692,"willing":1693,"proceed":1694,"aught":1695,"viol":1696,"cially":1697,"proud":1698,"intended":1699,"spent":1700,"posing":1701,"aching":1702,"expression":1703,"voice":1704,"true":1705,"excell":1706,"terms":1707,"favourite":1708,"meeting":1709,"directly":1710,"seems":1711,"ignor":1712,"trouble":1713,"praise":1714,"remember":1715,"drawing":1716,"grie":1717,"especially":1718,"journey":1719,"window":1720,"Per":1721,"az":1722,"bor":1723,"fur":1724,"ial":1725,"kes":1726,"lay":1727,"miss":1728,"pu":1729,"pare":1730,"sitting":1731,"ual":1732,"wro":1733,"health":1734,"reser":1735,"thor":1736,"stre":1737,"sess":1738,"ents":1739,"enter":1740,"forced":1741,"forget":1742,"notice":1743,"suit":1744,"adam":1745,"idence":1746,"ability":1747,"arest":1748,"whenever":1749,"ult":1750,"atest":1751,"thinking":1752,"fixed":1753,"posal":1754,"possess":1755,"mistaken":1756,"reasonable":1757,"understanding":1758,"promised":1759,"listened":1760,"descri":1761,"months":1762,"acknowledged":1763,"dancing":1764,"above":1765,"fortunate":1766,"emplo":1767,"apolo":1768,"further":1769,"wrote":1770,"!—":1771,"An":1772,"Car":1773,"Mari":1774,"cha":1775,"dut":1776,"dro":1777,"dress":1778,"danger":1779,"fal":1780,"pen":1781,"pause":1782,"ron":1783,"round":1784,"tend":1785,"try":1786,"uch":1787,"rejo":1788,"ordin":1789,"separ":1790,"desir":1791,"neg":1792,"alarm":1793,"hoped":1794,"conven":1795,"abl":1796,"amuse":1797,"unic":1798,"posure":1799,"comes":1800,"qui":1801,"accompl":1802,"urch":1803,"ardon":1804,"greatest":1805,"estate":1806,"partner":1807,"contr":1808,"cuse":1809,"morrow":1810,"eldest":1811,"receiving":1812,"communic":1813,"trust":1814,"particulars":1815,"licity":1816,"uded":1817,"full":1818,"connection":1819,"concerned":1820,"equally":1821,"knowledge":1822,"suffic":1823,"grace":1824,"wait":1825,"engagement":1826,"igence":1827,"charming":1828,"regret":1829,"employ":1830,"Maria":1831,"false":1832,"ail":1833,"bu":1834,"eper":1835,"fall":1836,"iety":1837,"late":1838,"vation":1839,"whis":1840,"yes":1841,"——":1842,"res":1843,"report":1844,"represent":1845,"chance":1846,"church":1847,"deed":1848,"superi":1849,"road":1850,"composure":1851,"tily":1852,"extre":1853,"test":1854,"pert":1855,"prev":1856,"iful":1857,"proposal":1858,"using":1859,"six":1860,"itten":1861,"ption":1862,"morti":1863,"justice":1864,"Indeed":1865,"instru":1866,"instead":1867,"written":1868,"satisf":1869,"taking":1870,"valu":1871,"ease":1872,"delightful":1873,"probable":1874,"expectation":1875,"resolution":1876,"comfortable":1877,"suffer":1878,"circumstance":1879,"paid":1880,"summer":1881,"diffic":1882,"intelligence":1883,"arrass":1884,"profess":1885,"princip":1886,"excellent":1887,"Perhaps":1888,"ordinary":1889,"quiet":1890,"superior":1891,"extreme":1892,"So":1893,"bow":1894,"creat":1895,"gl":1896,"law":1897,"madam":1898,"none":1899,"ply":1900,"ris":1901,"ration":1902,"sic":1903,"tion":1904,"vain":1905,"repro":1906,"reached":1907,"leaving":1908,"stri":1909,"entertain":1910,"const":1911,"felicity":1912,"rown":1913,"amaz":1914,"unless":1915,"aced":1916,"exam":1917,"prehen":1918,"iced":1919,"imprud":1920,"prospect":1921,"sight":1922,"sist":1923,"plan":1924,"plain":1925,"este":1926,"happen":1927,"senti":1928,"fulness":1929,"passion":1930,"sonage":1931,"women":1932,"smiled":1933,"connected":1934,"connections":1935,"persuade":1936,"weeks":1937,"anxiety":1938,"cheer":1939,"blame":1940,"capable":1941,"objection":1942,"polit":1943,"evident":1944,"absolutely":1945,"Sat":1946,"cal":1947,"cked":1948,"ging":1949,"hint":1950,"land":1951,"nge":1952,"ood":1953,"pun":1954,"pardon":1955,"rance":1956,"tone":1957,"twent":1958,"wit":1959,"resh":1960,"assemb":1961,"hall":1962,"lead":1963,"sty":1964,"vered":1965,"liar":1966,"liber":1967,"entreat":1968,"forgot":1969,"delic":1970,"decid":1971,"fered":1972,"loss":1973,"quick":1974,"kept":1975,"exc":1976,"excess":1977,"urday":1978,"disposed":1979,"park":1980,"proved":1981,"produ":1982,"miles":1983,"indifference":1984,"opened":1985,"parted":1986,"likewise":1987,"angry":1988,"understood":1989,"readily":1990,"affectionate":1991,"dining":1992,"request":1993,"perfect":1994,"rank":1995,"addressed":1996,"disappointment":1997,"companion":1998,"resentment":1999,"recommend":2000,"vanity":2001,"motive":2002,"intention":2003,"embarrass":2004,"politeness":2005,"Saturday":2006,"twenty":2007,"Are":2008,"All":2009,"Pr":2010,"Such":2011,"bly":2012,"card":2013,"dine":2014,"fond":2015,"ire":2016,"ned":2017,"old":2018,"pon":2019,"pay":2020,"sy":2021,"sed":2022,"tried":2023,"reed":2024,"encourage":2025,"asha":2026,"became":2027,"besto":2028,"ord":2029,"ste":2030,"chose":2031,"desp":2032,"advice":2033,"convi":2034,"consent":2035,"compassion":2036,"keeper":2037,"distance":2038,"disgrace":2039,"indifferent":2040,"author":2041,"otherwise":2042,"marked":2043,"scene":2044,"grac":2045,"grate":2046,"housekeeper":2047,"related":2048,"sides":2049,"mater":2050,"generally":2051,"eye":2052,"ump":2053,"spoken":2054,"doubted":2055,"oline":2056,"questions":2057,"promise":2058,"accepted":2059,"grave":2060,"period":2061,"pict":2062,"lucky":2063,"removed":2064,"extraordinary":2065,"welcome":2066,"suddenly":2067,"influ":2068,"Caroline":2069,"decided":2070,"ashamed":2071,"conviction":2072,"Very":2073,"Whi":2074,"av":2075,"bad":2076,"blic":2077,"cen":2078,"cent":2079,"dri":2080,"elo":2081,"fut":2082,"furn":2083,"la":2084,"mine":2085,"sit":2086,"swe":2087,"sim":2088,"tran":2089,"winter":2090,"ana":2091,"renew":2092,"ative":2093,"ison":2094,"ase":2095,"edu":2096,"order":2097,"nobody":2098,"seated":2099,"omin":2100,"vex":2101,"lived":2102,"cting":2103,"condesc":2104,"mode":2105,"uni":2106,"impert":2107,"afford":2108,"fact":2109,"indul":2110,"apprehen":2111,"spee":2112,"establ":2113,"please":2114,"colour":2115,"says":2116,"share":2117,"belief":2118,"giana":2119,"letters":2120,"uneas":2121,"wrong":2122,"consci":2123,"farther":2124,"choice":2125,"aware":2126,"lively":2127,"arrived":2128,"beautiful":2129,"succeed":2130,"declared":2131,"triump":2132,"tolerable":2133,"Though":2134,"assurance":2135,"complete":2136,"suspic":2137,"Georgiana":2138,"Parsonage":2139,"ignorant":2140,"public":2141,"duty":2142,"prevailed":2143,"extremely":2144,"future":2145,"triumph":2146,"Good":2147,"Kent":2148,"One":2149,"aven":2150,"ben":2151,"bed":2152,"flatter":2153,"gall":2154,"hind":2155,"ping":2156,"ror":2157,"rain":2158,"tain":2159,"thes":2160,"oun":2161,"isure":2162,"asking":2163,"behind":2164,"leisure":2165,"chang":2166,"wice":2167,"deb":2168,"dearest":2169,"weak":2170,"sult":2171,"alter":2172,"conject":2173,"consol":2174,"ribut":2175,"pet":2176,"unable":2177,"exert":2178,"excuse":2179,"yours":2180,"disagreeable":2181,"aff":2182,"ester":2183,"pron":2184,"fice":2185,"greatly":2186,"fami":2187,"boast":2188,"support":2189,"supposing":2190,"partiality":2191,"wishing":2192,"misery":2193,"reading":2194,"Nothing":2195,"priv":2196,"writing":2197,"calling":2198,"generous":2199,"Lucases":2200,"considering":2201,"consideration":2202,"gratified":2203,"observation":2204,"probation":2205,"favourable":2206,"respectable":2207,"meaning":2208,"retched":2209,"interesting":2210,"astonished":2211,"thanks":2212,"hurry":2213,"eagerly":2214,"tolerably":2215,"learnt":2216,"struck":2217,"occurred":2218,"visitors":2219,"wedding":2220,"elegant":2221,"comparison":2222,"parent":2223,"negle":2224,"sufficient":2225,"principal":2226,"creature":2227,"gracious":2228,"influence":2229,"impertin":2230,".’":2231,"Be":2232,"By":2233,"Did":2234,"Of":2235,"ali":2236,"bri":2237,"dared":2238,"iest":2239,"kward":2240,"lau":2241,"mn":2242,"sday":2243,"tas":2244,"twice":2245,"ues":2246,"yester":2247,"thir":2248,"ency":2249,"tory":2250,"ash":2251,"ased":2252,"ars":2253,"itated":2254,"younge":2255,"wild":2256,"hig":2257,"entrance":2258,"def":2259,"adv":2260,"hold":2261,"contempt":2262,"rich":2263,"und":2264,"music":2265,"safe":2266,"accor":2267,"exclaim":2268,"tea":2269,"Then":2270,"disgu":2271,"etc":2272,"appli":2273,"sooner":2274,"worse":2275,"pray":2276,"spend":2277,"shame":2278,"sentence":2279,"turning":2280,"firm":2281,"assert":2282,"believing":2283,"possibility":2284,"elder":2285,"partial":2286,"clear":2287,"misfortune":2288,"priety":2289,"interference":2290,"standing":2291,"mony":2292,"finding":2293,"stranger":2294,"awkward":2295,"painful":2296,"determine":2297,"recollected":2298,"close":2299,"clothes":2300,"opening":2301,"frequent":2302,"naturally":2303,"distressed":2304,"secure":2305,"servants":2306,"books":2307,"improve":2308,"watch":2309,"enjoyment":2310,"deceived":2311,"guarded":2312,"ideas":2313,"relief":2314,"apolog":2315,"whisper":2316,"Pray":2317,"grateful":2318,"picture":2319,"While":2320,"benef":2321,"ounced":2322,"taste":2323,"yesterday":2324,"youngest":2325,"Den":2326,"Now":2327,"Tues":2328,"Upon":2329,"ca":2330,"ghed":2331,"gained":2332,"hast":2333,"ilt":2334,"lin":2335,"ny":2336,"pared":2337,"var":2338,"wretched":2339,"height":2340,"informed":2341,"inconven":2342,"anti":2343,"rence":2344,"throw":2345,"encour":2346,"arily":2347,"noble":2348,"vell":2349,"des":2350,"deep":2351,"delay":2352,"irt":2353,"solic":2354,"abomin":2355,"agreed":2356,"amb":2357,"unhappy":2358,"unwilling":2359,"loved":2360,"accid":2361,"ext":2362,"teen":2363,"perform":2364,"preser":2365,"prefer":2366,"usal":2367,"silly":2368,"indu":2369,"indign":2370,"applied":2371,"spected":2372,"coach":2373,"inson":2374,"looks":2375,"longed":2376,"ground":2377,"gible":2378,"pressed":2379,"parties":2380,"passing":2381,"attentive":2382,"returning":2383,"expressions":2384,"unex":2385,"stop":2386,"natured":2387,"immediate":2388,"garden":2389,"occasionally":2390,"range":2391,"shortly":2392,"recollection":2393,"actually":2394,"engagements":2395,"admired":2396,"disappointed":2397,"danced":2398,"approaching":2399,"bringing":2400,"volunt":2401,"intimate":2402,"assistance":2403,"quarter":2404,"beginning":2405,"perceived":2406,"congratulations":2407,"relationship":2408,"rapt":2409,"grieved":2410,"amusement":2411,"accomplished":2412,"valuable":2413,"constant":2414,"forgotten":2415,"sweet":2416,"apprehension":2417,"speech":2418,"application":2419,"Denny":2420,"Tuesday":2421,"accident":2422,"Can":2423,"Could":2424,"Have":2425,"Nor":2426,"Yet":2427,"cup":2428,"cru":2429,"cross":2430,"caught":2431,"difference":2432,"fif":2433,"free":2434,"lve":2435,"lately":2436,"voured":2437,"vari":2438,"held":2439,"income":2440,"ank":2441,"reg":2442,"ones":2443,"thrown":2444,"ati":2445,"ates":2446,"atures":2447,"tot":2448,"argu":2449,"star":2450,"stud":2451,"lips":2452,"utter":2453,"aloud":2454,"feared":2455,"fellow":2456,"amma":2457,"moved":2458,"pected":2459,"post":2460,"aining":2461,"lose":2462,"quit":2463,"acc":2464,"pret":2465,"prepared":2466,"ify":2467,"folly":2468,"fool":2469,"gover":2470,"parlour":2471,"prote":2472,"ulous":2473,"ulty":2474,"moreover":2475,"race":2476,"Heaven":2477,"attend":2478,"attached":2479,"bless":2480,"colle":2481,"oppos":2482,"cler":2483,"wood":2484,"content":2485,"supper":2486,"angu":2487,"due":2488,"relate":2489,"wants":2490,"moments":2491,"required":2492,"twelve":2493,"strange":2494,"observing":2495,"acquaintances":2496,"cousins":2497,"invited":2498,"purch":2499,"pursu":2500,"corre":2501,"travell":2502,"spirit":2503,"interested":2504,"neighbours":2505,"necessity":2506,"confusion":2507,"confidence":2508,"shook":2509,"inclined":2510,"drawn":2511,"important":2512,"vided":2513,"views":2514,"finished":2515,"trif":2516,"amongst":2517,"introduce":2518,"introduction":2519,"seriously":2520,"smallest":2521,"laughing":2522,"explan":2523,"objections":2524,"earnestly":2525,"increased":2526,"single":2527,"dreadful":2528,"judgement":2529,"possession":2530,"chaise":2531,"drove":2532,"desirable":2533,"communication":2534,"instrument":2535,"satisfy":2536,"difficult":2537,"amaze":2538,"esteem":2539,"delicacy":2540,"excessively":2541,"produced":2542,"steady":2543,"education":2544,"private":2545,"laughed":2546,"unexpected":2547,"opposite":2548,".—":2549,"Lord":2550,"Lamb":2551,"Rey":2552,"Some":2553,"Sco":2554,"Stre":2555,"Who":2556,"ath":2557,"cri":2558,"cise":2559,"caut":2560,"dr":2561,"dances":2562,"fash":2563,"ger":2564,"gate":2565,"iently":2566,"non":2567,"pit":2568,"past":2569,"ring":2570,"rit":2571,"sour":2572,"spr":2573,"sick":2574,"tall":2575,"vag":2576,"vity":2577,"virt":2578,"ining":2579,"insufficient":2580,"ann":2581,"recy":2582,"reject":2583,"remind":2584,"ount":2585,"ense":2586,"ingu":2587,"besides":2588,"arch":2589,"arrange":2590,"iture":2591,"habit":2592,"nold":2593,"stu":2594,"stead":2595,"seld":2596,"lies":2597,"liest":2598,"likes":2599,"youth":2600,"vering":2601,"depart":2602,"defect":2603,"shed":2604,"memor":2605,"utmost":2606,"als":2607,"alous":2608,"advis":2609,"idity":2610,"fema":2611,"aging":2612,"pecu":2613,"unlucky":2614,"esca":2615,"tic":2616,"qual":2617,"tears":2618,"These":2619,"preference":2620,"discu":2621,"imp":2622,"parish":2623,"mil":2624,"Bennets":2625,"ission":2626,"Here":2627,"speed":2628,"attra":2629,"attribut":2630,"happiest":2631,"service":2632,"goodness":2633,"scru":2634,"rooms":2635,"heartily":2636,"overcome":2637,"contri":2638,"addition":2639,"bore":2640,"charge":2641,"commend":2642,"commonly":2643,"subjects":2644,"hands":2645,"value":2646,"sincere":2647,"considerable":2648,"smiling":2649,"observe":2650,"settle":2651,"distingu":2652,"treat":2653,"direction":2654,"enquire":2655,"staying":2656,"advantages":2657,"cordi":2658,"oblig":2659,"listening":2660,"consequently":2661,"endeavoured":2662,"rendered":2663,"compliments":2664,"waiting":2665,"enquiry":2666,"hurried":2667,"secret":2668,"secrecy":2669,"nieces":2670,"chiefly":2671,"remarkably":2672,"learn":2673,"increasing":2674,"intimacy":2675,"solemn":2676,"interruption":2677,"concluded":2678,"ridic":2679,"impatience":2680,"running":2681,"proceeded":2682,"violent":2683,"mission":2684,"reserved":2685,"street":2686,"contrary":2687,"rational":2688,"imprudent":2689,"sentiments":2690,"calm":2691,"style":2692,"excited":2693,"embarrassment":2694,"encouragement":2695,"elope":2696,"furniture":2697,"vexation":2698,"changed":2699,"debts":2700,"consolation":2701,"pronounced":2702,"neglect":2703,"regul":2704,"amazement":2705,"Lambton":2706,"Reynold":2707,"Scot":2708,"Street":2709,"virtue":2710,"seldom":2711,"peculiar":2712,"escape":2713,"discuss":2714,"Reynolds":2715,"Grace":2716,"Jen":2717,"Mon":2718,"Po":2719,"St":2720,"Sun":2721,"Wed":2722,"bid":2723,"blu":2724,"bene":2725,"dwell":2726,"ec":2727,"eight":2728,"fish":2729,"fresh":2730,"gence":2731,"gge":2732,"gown":2733,"ior":2734,"ield":2735,"kinson":2736,"lam":2737,"lane":2738,"mbe":2739,"pity":2740,"tress":2741,"tained":2742,"yield":2743,"hest":2744,"anim":2745,"error":2746,"thither":2747,"threw":2748,"tom":2749,"offered":2750,"become":2751,"itself":2752,"orig":2753,"stic":2754,"seve":2755,"cere":2756,"entail":2757,"force":2758,"dest":2759,"nesday":2760,"suspected":2761,"sugge":2762,"along":2763,"adi":2764,"conci":2765,"uncommonly":2766,"sacri":2767,"quitted":2768,"exis":2769,"expen":2770,"prepar":2771,"ific":2772,"owed":2773,"disd":2774,"display":2775,"impress":2776,"knows":2777,"prove":2778,"maid":2779,"sive":2780,"fail":2781,"fault":2782,"placed":2783,"haste":2784,"hastily":2785,"attending":2786,"insen":2787,"sport":2788,"spond":2789,"fright":2790,"fig":2791,"friendship":2792,"offended":2793,"contents":2794,"couple":2795,"gives":2796,"certainty":2797,"portion":2798,"reception":2799,"command":2800,"commission":2801,"occup":2802,"miser":2803,"mistress":2804,"story":2805,"continue":2806,"carry":2807,"sincerely":2808,"refuse":2809,"smiles":2810,"probability":2811,"persons":2812,"honoured":2813,"minute":2814,"directed":2815,"patience":2816,"Yours":2817,"incred":2818,"persuas":2819,"admitted":2820,"summon":2821,"confid":2822,"fears":2823,"complain":2824,"humble":2825,"blind":2826,"declare":2827,"pract":2828,"introduced":2829,"remembe":2830,"repeatedly":2831,"diff":2832,"recommended":2833,"explained":2834,"intelli":2835,"deserve":2836,"deserved":2837,"interrupted":2838,"reflection":2839,"reflections":2840,"bitter":2841,"elegance":2842,"entering":2843,"dressing":2844,"ront":2845,"tender":2846,"rejoiced":2847,"represented":2848,"proposals":2849,"assembly":2850,"authority":2851,"material":2852,"suspicion":2853,"gallant":2854,"exertion":2855,"third":2856,"highest":2857,"improvement":2858,"lines":2859,"various":2860,"induce":2861,"clergy":2862,"correspond":2863,"source":2864,"elopement":2865,"Gracechurch":2866,"Jenkinson":2867,"Monday":2868,"Sunday":2869,"Wednesday":2870,"origin":2871,"remembered":2872,"Come":2873,"Certain":2874,"Dear":2875,"Hill":2876,"House":2877,"acted":2878,"bted":2879,"cit":2880,"cking":2881,"dome":2882,"dined":2883,"eli":2884,"emed":2885,"fli":2886,"fun":2887,"flat":2888,"flow":2889,"game":2890,"grow":2891,"kill":2892,"line":2893,"mp":2894,"mamma":2895,"phi":2896,"sle":2897,"spre":2898,"sound":2899,"sions":2900,"tê":2901,"taught":2902,"ude":2903,"vac":2904,"war":2905,"inn":2906,"infam":2907,"infer":2908,"insist":2909,"reach":2910,"resign":2911,"ering":2912,"ises":2913,"armed":2914,"itate":2915,"ordered":2916,"lest":2917,"hers":2918,"stup":2919,"seat":2920,"vexed":2921,"forgive":2922,"note":2923,"noticed":2924,"meas":2925,"super":2926,"altogether":2927,"alarmed":2928,"idle":2929,"consis":2930,"console":2931,"confirm":2932,"features":2933,"absur":2934,"ourselves":2935,"unjust":2936,"unknown":2937,"unpleasant":2938,"undoubted":2939,"composed":2940,"lod":2941,"quitting":2942,"exer":2943,"hate":2944,"selfish":2945,"ifying":2946,"odd":2947,"discourse":2948,"fold":2949,"propriety":2950,"manage":2951,"somewhat":2952,"apable":2953,"seek":2954,"dign":2955,"estim":2956,"happily":2957,"coat":2958,"spared":2959,"posit":2960,"grad":2961,"cured":2962,"formal":2963,"supply":2964,"possibly":2965,"court":2966,"begged":2967,"seness":2968,"mistake":2969,"Chris":2970,"death":2971,"independ":2972,"indebted":2973,"expressing":2974,"ilities":2975,"guess":2976,"trusted":2977,"takes":2978,"opinions":2979,"carried":2980,"umer":2981,"refusal":2982,"occasions":2983,"follows":2984,"circle":2985,"behaved":2986,"treated":2987,"chosen":2988,"concerns":2989,"wondered":2990,"enquired":2991,"incapable":2992,"suffered":2993,"deny":2994,"gentlemanlike":2995,"doors":2996,"recollections":2997,"usually":2998,"imagin":2999,"officer":3000,"shocked":3001,"openly":3002,"piece":3003,"properly":3004,"property":3005,"counter":3006,"strongly":3007,"thankful":3008,"matters":3009,"acknowledge":3010,"eagerness":3011,"horses":3012,"abode":3013,"remarks":3014,"polite":3015,"assurances":3016,"extravag":3017,"assist":3018,"chooses":3019,"quarrel":3020,"human":3021,"conclusion":3022,"remaining":3023,"relieved":3024,"discover":3025,"impatient":3026,"George":3027,"evils":3028,"warmth":3029,"warmly":3030,"reserve":3031,"apology":3032,"Anne":3033,"separation":3034,"employed":3035,"difficulty":3036,"quietly":3037,"reproach":3038,"imprudence":3039,"sentiment":3040,"punct":3041,"witness":3042,"bestow":3043,"bestowed":3044,"laid":3045,"tranqu":3046,"uneasy":3047,"impertinence":3048,"advise":3049,"according":3050,"exclaimed":3051,"watching":3052,"heightened":3053,"inconvenience":3054,"encouraged":3055,"solicitude":3056,"indignation":3057,"voluntarily":3058,"cruel":3059,"atigu":3060,"totally":3061,"foolish":3062,"governess":3063,"protested":3064,"explanation":3065,"drink":3066,"fashion":3067,"arrangement":3068,"memory":3069,"female":3070,"scruple":3071,"commendation":3072,"Scotland":3073,"Poor":3074,"lament":3075,"severe":3076,"sacrifice":3077,"figure":3078,"persuasion":3079,"gallantry":3080,"clergyman":3081,"domestic":3082,"flir":3083,"spread":3084,"tête":3085,"inferior":3086,"absurd":3087,";”":3088,"?—":3089,"AR":3090,"Ab":3091,"Ho":3092,"Im":3093,"King":3094,"Lod":3095,"May":3096,"Our":3097,"bir":3098,"bert":3099,"cre":3100,"cof":3101,"cam":3102,"cared":3103,"eti":3104,"finer":3105,"fret":3106,"fatigu":3107,"gg":3108,"gment":3109,"hone":3110,"lance":3111,"liness":3112,"langu":3113,"nu":3114,"owe":3115,"rone":3116,"rising":3117,"sal":3118,"tal":3119,"vous":3120,"wound":3121,"xion":3122,"yed":3123,"inju":3124,"invol":3125,"resemb":3126,"ounce":3127,"enced":3128,"ension":3129,"betr":3130,"arise":3131,"llable":3132,"ory":3133,"sti":3134,"sex":3135,"omy":3136,"libert":3137,"forbear":3138,"dem":3139,"defic":3140,"deliber":3141,"notion":3142,"weight":3143,"suspect":3144,"utation":3145,"altered":3146,"conver":3147,"consult":3148,"fee":3149,"rimony":3150,"rose":3151,"abhor":3152,"abilities":3153,"amend":3154,"pered":3155,"peace":3156,"united":3157,"unaffected":3158,"unreasonable":3159,"uncomfortable":3160,"unfold":3161,"comed":3162,"loso":3163,"tired":3164,"quali":3165,"arer":3166,"actory":3167,"ket":3168,"excl":3169,"expose":3170,"perver":3171,"preten":3172,"preju":3173,"pretend":3174,"willingly":3175,"improbable":3176,"prov":3177,"proof":3178,"provided":3179,"makes":3180,"somebody":3181,"sibility":3182,"approbation":3183,"seeking":3184,"thanked":3185,"oused":3186,"vill":3187,"vide":3188,"dice":3189,"attack":3190,"obst":3191,"cied":3192,"jealous":3193,"worst":3194,"intending":3195,"spare":3196,"fire":3197,"parting":3198,"friendly":3199,"lessness":3200,"hopeless":3201,"contain":3202,"contained":3203,"grand":3204,"boy":3205,"engross":3206,"clever":3207,"restrain":3208,"pleasures":3209,"kindly":3210,"wherever":3211,"tting":3212,"telling":3213,"pointed":3214,"ilar":3215,"broken":3216,"Charles":3217,"instance":3218,"instant":3219,"venture":3220,"ventured":3221,"effort":3222,"truly":3223,"wanting":3224,"getting":3225,"interval":3226,"civilities":3227,"refusing":3228,"refresh":3229,"spot":3230,"expectations":3231,"mentioning":3232,"resolving":3233,"tempted":3234,"temptation":3235,"useless":3236,"fication":3237,"objects":3238,"direct":3239,"directions":3240,"patron":3241,"patrone":3242,"formerly":3243,"nearly":3244,"balls":3245,"closed":3246,"differently":3247,"paper":3248,"disapprobation":3249,"Only":3250,"humoured":3251,"shop":3252,"waited":3253,"merit":3254,"finally":3255,"finite":3256,"judged":3257,"keeping":3258,"dependence":3259,"approach":3260,"endeavours":3261,"fancied":3262,"companions":3263,"worthy":3264,"luckily":3265,"showed":3266,"removal":3267,"remarkable":3268,"signific":3269,"watched":3270,"welcomed":3271,"princi":3272,"dreaded":3273,"strugg":3274,"complexion":3275,"affairs":3276,"schemes":3277,"motives":3278,"perceive":3279,"congratulate":3280,"discovery":3281,"discovered":3282,"concealed":3283,"Park":3284,"ignorance":3285,"describe":3286,"description":3287,"rejoice":3288,"desirous":3289,"falsehood":3290,"resses":3291,"sixteen":3292,"satisfactory":3293,"profession":3294,"glance":3295,"entertained":3296,"esteemed":3297,"cheerful":3298,"cheerfulness":3299,"entreaty":3300,"embarrassed":3301,"cards":3302,"similar":3303,"renewal":3304,"orders":3305,"condescension":3306,"univers":3307,"established":3308,"uneasiness":3309,"succeeded":3310,"completely":3311,"alteration":3312,"conjecture":3313,"familiar":3314,"families":3315,"parents":3316,"extent":3317,"raptures":3318,"variety":3319,"study":3320,"contented":3321,"twelvemonth":3322,"spring":3323,"studi":3324,"blushed":3325,"dwelling":3326,"impression":3327,"frightened":3328,"Certainly":3329,"eligible":3330,"flattered":3331,"philoso":3332,"undoubtedly":3333,"lodg":3334,"Lodge":3335,"coffee":3336,"resemblance":3337,"betray":3338,"liberty":3339,"prejudice":3340,"patroness":3341,"),":3342,",—":3343,"Ay":3344,"Con":3345,"Ex":3346,"Eng":3347,"Has":3348,"Having":3349,"IN":3350,"Jame":3351,"Lou":3352,"Lak":3353,"Never":3354,"Re":3355,"Till":3356,"Un":3357,"Where":3358,"ais":3359,"apart":3360,"actions":3361,"ban":3362,"cher":3363,"cast":3364,"dar":3365,"dingly":3366,"eu":3367,"econ":3368,"emo":3369,"fit":3370,"fying":3371,"fitted":3372,"hund":3373,"ia":3374,"lan":3375,"loured":3376,"leness":3377,"mut":3378,"pal":3379,"phy":3380,"rity":3381,"roused":3382,"sad":3383,"song":3384,"sink":3385,"sco":3386,"soften":3387,"slow":3388,"tour":3389,"tmas":3390,"ully":3391,"vary":3392,"wand":3393,"—“":3394,"—”":3395,"inj":3396,"infinite":3397,"resto":3398,"reconci":3399,"enumer":3400,"isa":3401,"asing":3402,"aspe":3403,"eding":3404,"belong":3405,"aris":3406,"arti":3407,"itia":3408,"nove":3409,"sees":3410,"ceased":3411,"lying":3412,"velo":3413,"wide":3414,"entailed":3415,"det":3416,"dead":3417,"dete":3418,"deference":3419,"weather":3420,"uttered":3421,"alluded":3422,"iring":3423,"ided":3424,"river":3425,"riages":3426,"agitation":3427,"amid":3428,"amused":3429,"moder":3430,"unfortunate":3431,"poc":3432,"escap":3433,"accompan":3434,"experi":3435,"urb":3436,"urged":3437,"teasing":3438,"performed":3439,"permission":3440,"presence":3441,"prepare":3442,"displeasure":3443,"discer":3444,"ants":3445,"proportion":3446,"ush":3447,"sisted":3448,"mile":3449,"shar":3450,"apply":3451,"racted":3452,"raised":3453,"vile":3454,"dict":3455,"oking":3456,"pled":3457,"everyone":3458,"grew":3459,"gress":3460,"wisest":3461,"cop":3462,"coloured":3463,"jection":3464,"cases":3465,"ngth":3466,"offen":3467,"mbled":3468,"grounds":3469,"addresses":3470,"earliest":3471,"pressing":3472,"houses":3473,"iously":3474,"engaging":3475,"justify":3476,"affect":3477,"subst":3478,"sens":3479,"dull":3480,"nice":3481,"Gardiners":3482,"county":3483,"privile":3484,"guest":3485,"matrimony":3486,"Whatever":3487,"intercourse":3488,"downstairs":3489,"continually":3490,"carriages":3491,"appearing":3492,"refused":3493,"gratifying":3494,"distin":3495,"recover":3496,"recovered":3497,"allowing":3498,"respects":3499,"useful":3500,"desired":3501,"occasional":3502,"invite":3503,"pursuit":3504,"stayed":3505,"powers":3506,"corum":3507,"corps":3508,"oblige":3509,"obliging":3510,"honourable":3511,"breeding":3512,"denial":3513,"admit":3514,"repeating":3515,"acceptable":3516,"recollect":3517,"clock":3518,"suming":3519,"complais":3520,"shocking":3521,"tables":3522,"playing":3523,"names":3524,"declar":3525,"declined":3526,"conceited":3527,"stronger":3528,"condition":3529,"hurt":3530,"distressing":3531,"aired":3532,"approached":3533,"larger":3534,"designed":3535,"horse":3536,"claims":3537,"explain":3538,"shown":3539,"increase":3540,"Thank":3541,"improved":3542,"interrupt":3543,"deceive":3544,"suspense":3545,"purposely":3546,"intentions":3547,"proceeding":3548,"violently":3549,"windows":3550,"missed":3551,"strength":3552,"chair":3553,"drop":3554,"dressed":3555,"trying":3556,"separate":3557,"employment":3558,"mortification":3559,"mortifying":3560,"valued":3561,"professions":3562,"reproof":3563,"entertainment":3564,"plainly":3565,"assembled":3566,"leading":3567,"delicate":3568,"symp":3569,"syllable":3570,"renewed":3571,"modesty":3572,"indulgence":3573,"establishment":3574,"impertinent":3575,"disgust":3576,"anticip":3577,"delayed":3578,"abominable":3579,"performance":3580,"stopped":3581,"fifty":3582,"accus":3583,"woods":3584,"purchase":3585,"pursue":3586,"travelling":3587,"nonsense":3588,"reminded":3589,"departure":3590,"advisable":3591,"qualities":3592,"speedily":3593,"distinguished":3594,"obligation":3595,"expense":3596,"preparing":3597,"disdain":3598,"miserable":3599,"resigned":3600,"exercise":3601,"gradually":3602,"Christmas":3603,"independence":3604,"tranquill":3605,"flirt":3606,"About":3607,"However":3608,"honest":3609,"forbearance":3610,"abhorrence":3611,"perverseness":3612,"village":3613,"principle":3614,"Aye":3615,"James":3616,"Louisa":3617,"Lakes":3618,"hundred":3619,"softened":3620,"aspect":3621,"accompanied":3622,"symptom":3623,".,":3624,";—":3625,"Ah":3626,"Allow":3627,"Jones":3628,"Mo":3629,"Nay":3630,"Since":3631,"Te":3632,"Tho":3633,"Two":3634,"aid":3635,"aily":3636,"bb":3637,"bar":3638,"bare":3639,"bought":3640,"bright":3641,"cat":3642,"cis":3643,"ches":3644,"cret":3645,"ded":3646,"dom":3647,"dwe":3648,"ev":3649,"eat":3650,"fl":3651,"fare":3652,"frank":3653,"front":3654,"gen":3655,"gain":3656,"glo":3657,"grown":3658,"har":3659,"ially":3660,"iled":3661,"ians":3662,"ming":3663,"mit":3664,"mend":3665,"nar":3666,"nay":3667,"nam":3668,"oh":3669,"ot":3670,"pap":3671,"rate":3672,"sl":3673,"sin":3674,"sly":3675,"sper":3676,"spl":3677,"sought":3678,"ule":3679,"vance":3680,"insol":3681,"inses":3682,"anof":3683,"ancy":3684,"reen":3685,"reli":3686,"recent":3687,"result":3688,"ouched":3689,"thin":3690,"thod":3691,"env":3692,"office":3693,"bell":3694,"below":3695,"art":3696,"arose":3697,"arising":3698,"itled":3699,"itary":3700,"itations":3701,"orte":3702,"hau":3703,"hack":3704,"letting":3705,"noon":3706,"station":3707,"stared":3708,"vember":3709,"vesti":3710,"lier":3711,"lihood":3712,"wilf":3713,"hither":3714,"forth":3715,"forbid":3716,"devo":3717,"defer":3718,"decorum":3719,"nearest":3720,"nearer":3721,"mere":3722,"mess":3723,"melan":3724,"method":3725,"welf":3726,"uted":3727,"alac":3728,"withdrew":3729,"advan":3730,"conve":3731,"ric":3732,"ride":3733,"abrup":3734,"agitated":3735,"moving":3736,"uncivil":3737,"uncommon":3738,"bye":3739,"lover":3740,"acing":3741,"acity":3742,"accompany":3743,"across":3744,"acency":3745,"exten":3746,"exped":3747,"exposing":3748,"exec":3749,"teach":3750,"perate":3751,"persever":3752,"previ":3753,"preced":3754,"icing":3755,"ical":3756,"dish":3757,"dischar":3758,"disadvantage":3759,"discret":3760,"imput":3761,"provo":3762,"proposed":3763,"protest":3764,"progress":3765,"prosper":3766,"siz":3767,"mixt":3768,"shut":3769,"shru":3770,"apparent":3771,"Bingleys":3772,"cide":3773,"cious":3774,"pleasantly":3775,"cost":3776,"intend":3777,"intru":3778,"hamber":3779,"spending":3780,"opposed":3781,"fix":3782,"parts":3783,"plicit":3784,"ruin":3785,"Collinses":3786,"likelihood":3787,"offers":3788,"lessen":3789,"lty":3790,"adding":3791,"cumb":3792,"ishments":3793,"justified":3794,"visits":3795,"Were":3796,"November":3797,"relating":3798,"presentation":3799,"pointing":3800,"energy":3801,"tempered":3802,"guilt":3803,"causes":3804,"reasons":3805,"reasonably":3806,"Neither":3807,"places":3808,"requiring":3809,"uding":3810,"strang":3811,"expecting":3812,"distant":3813,"concerning":3814,"respectability":3815,"trees":3816,"choly":3817,"meanwhile":3818,"visiting":3819,"patched":3820,"promo":3821,"trace":3822,"elsewhere":3823,"repeat":3824,"Does":3825,"curt":3826,"recollecting":3827,"imagined":3828,"actual":3829,"checked":3830,"confined":3831,"fearful":3832,"complacency":3833,"blush":3834,"capti":3835,"pianof":3836,"mercen":3837,"conceit":3838,"enquiring":3839,"finish":3840,"approve":3841,"endeavouring":3842,"ential":3843,"horror":3844,"prudent":3845,"prudence":3846,"visible":3847,"curious":3848,"events":3849,"arrang":3850,"deserving":3851,"impropriety":3852,"reflect":3853,"fortunately":3854,"joining":3855,"humil":3856,"conclude":3857,"remains":3858,"evidently":3859,"steps":3860,"impatiently":3861,"rapid":3862,"born":3863,"borne":3864,"thorough":3865,"suitable":3866,"described":3867,"alarming":3868,"convenient":3869,"accomplishments":3870,"sufficiently":3871,"ailing":3872,"bule":3873,"whist":3874,"representation":3875,"mortified":3876,"principally":3877,"risk":3878,"strike":3879,"example":3880,"calcul":3881,"punishment":3882,"liberal":3883,"produce":3884,"steward":3885,"disgraceful":3886,"materially":3887,"censure":3888,"driven":3889,"lawn":3890,"simple":3891,"condescended":3892,"uniform":3893,"afforded":3894,"indulge":3895,"conscious":3896,"conscience":3897,"gallery":3898,"weakness":3899,"petition":3900,"holding":3901,"accordingly":3902,"apologise":3903,"benefit":3904,"hasty":3905,"desert":3906,"deeply":3907,"sweetness":3908,"crossed":3909,"argument":3910,"start":3911,"trifle":3912,"trifling":3913,"caution":3914,"cautious":3915,"defects":3916,"attributed":3917,"treatment":3918,"solemnity":3919,"ridicule":3920,"regular":3921,"discussion":3922,"beneath":3923,"ceremony":3924,"suggested":3925,"insensibility":3926,"occupied":3927,"summoned":3928,"practice":3929,"diffidence":3930,"intelligible":3931,"bitterness":3932,"inducement":3933,"correspondence":3934,"sleep":3935,"vacant":3936,"measure":3937,"consisten":3938,"management":3939,"dignity":3940,"estimation":3941,"imaginary":3942,"birth":3943,"created":3944,"eties":3945,"language":3946,"number":3947,"talents":3948,"demand":3949,"deficient":3950,"amends":3951,"unfolded":3952,"qualified":3953,"exclam":3954,"pretensions":3955,"obstin":3956,"engrossed":3957,"restraint":3958,"refreshment":3959,"philosophy":3960,"lodgings":3961,"England":3962,"economy":3963,"emotion":3964,"mutual":3965,"enumerating":3966,"arisen":3967,"article":3968,"novelty":3969,"escaped":3970,"distinction":3971,"complaisance":3972,"declaration":3973,"tranquillity":3974,"Tell":3975,"Those":3976,"catch":3977,"dwelt":3978,"papa":3979,"splend":3980,"vestibule":3981,"melancholy":3982,"welfare":3983,"alacrity":3984,"advanced":3985,"abrupt":3986,"discretion":3987,"provoke":3988,"mixture":3989,"pianoforte":3990,"mercenary":3991,"humility":3992,",’":3993,"Bo":3994,"Cl":3995,"Com":3996,"Cap":3997,"Four":3998,"God":3999,"Many":4000,"Much":4001,"Shall":4002,"Tru":4003,"Thur":4004,"Und":4005,"athe":4006,"awn":4007,"bred":4008,"bound":4009,"cr":4010,"cand":4011,"cough":4012,"crow":4013,"chamber":4014,"don":4015,"dir":4016,"eur":4017,"fing":4018,"fain":4019,"freed":4020,"gro":4021,"gai":4022,"glow":4023,"harm":4024,"ild":4025,"ible":4026,"iece":4027,"iency":4028,"ivity":4029,"ls":4030,"lst":4031,"loud":4032,"lord":4033,"ms":4034,"mir":4035,"main":4036,"mount":4037,"nk":4038,"olly":4039,"obey":4040,"pha":4041,"pended":4042,"rained":4043,"sou":4044,"scold":4045,"tong":4046,"touched":4047,"uced":4048,"uously":4049,"vou":4050,"vit":4051,"vall":4052,"wink":4053,"wcast":4054,"yawn":4055,"heav":4056,"inno":4057,"inher":4058,"injustice":4059,"insignific":4060,"incumb":4061,"inconsisten":4062,"anch":4063,"ancing":4064,"rec":4065,"rend":4066,"revi":4067,"resist":4068,"outh":4069,"err":4070,"ensu":4071,"atone":4072,"atory":4073,"top":4074,"toward":4075,"ason":4076,"assent":4077,"aside":4078,"ingen":4079,"behave":4080,"behalf":4081,"becoming":4082,"becomes":4083,"arts":4084,"iter":4085,"ital":4086,"itating":4087,"llies":4088,"orned":4089,"hab":4090,"sele":4091,"seiz":4092,"search":4093,"secured":4094,"season":4095,"liation":4096,"lives":4097,"lift":4098,"hib":4099,"entitled":4100,"verted":4101,"forci":4102,"depri":4103,"delive":4104,"detest":4105,"detain":4106,"decide":4107,"depended":4108,"sheet":4109,"meat":4110,"mest":4111,"west":4112,"sunk":4113,"alo":4114,"history":4115,"withheld":4116,"alli":4117,"allied":4118,"allusion":4119,"irr":4120,"adri":4121,"adop":4122,"idd":4123,"idable":4124,"idge":4125,"hoping":4126,"contem":4127,"conference":4128,"fet":4129,"rice":4130,"absent":4131,"abroad":4132,"abund":4133,"agger":4134,"aming":4135,"amusing":4136,"unas":4137,"union":4138,"unlike":4139,"unlikely":4140,"unnecessary":4141,"unconnected":4142,"unpardon":4143,"unwelcome":4144,"ungracious":4145,"unguarded":4146,"unwillingly":4147,"unworthy":4148,"ains":4149,"compose":4150,"mult":4151,"lower":4152,"lovers":4153,"tire":4154,"quet":4155,"quadri":4156,"acked":4157,"acutely":4158,"accuse":4159,"accent":4160,"hated":4161,"perpet":4162,"perusal":4163,"endured":4164,"precip":4165,"owing":4166,"owner":4167,"reduced":4168,"displeased":4169,"dissatisfied":4170,"disliked":4171,"disinterested":4172,"dispatched":4173,"inevit":4174,"imposed":4175,"eton":4176,"prodi":4177,"procured":4178,"provide":4179,"usions":4180,"ular":4181,"ults":4182,"mali":4183,"somewhere":4184,"sisting":4185,"faith":4186,"faults":4187,"mild":4188,"shy":4189,"apham":4190,"thanking":4191,"die":4192,"divers":4193,"divided":4194,"plation":4195,"Its":4196,"akened":4197,"spection":4198,"estates":4199,"thinks":4200,"obtained":4201,"coolly":4202,"inspi":4203,"worked":4204,"Young":4205,"Younge":4206,"sermon":4207,"nerves":4208,"nervous":4209,"shared":4210,"shaken":4211,"dering":4212,"feels":4213,"warded":4214,"evenings":4215,"overspread":4216,"forming":4217,"formidable":4218,"moral":4219,"supposition":4220,"lasted":4221,"begins":4222,"solitary":4223,"gentleness":4224,"visited":4225,"rested":4226,"branch":4227,"bridge":4228,"misunderstood":4229,"readiness":4230,"points":4231,"unequal":4232,"instances":4233,"eff":4234,"efly":4235,"kingdom":4236,"Newcast":4237,"affections":4238,"affectionately":4239,"agreement":4240,"agreeably":4241,"continuance":4242,"foundation":4243,"minds":4244,"delightfully":4245,"cerity":4246,"north":4247,"observ":4248,"recovering":4249,"circul":4250,"occasioned":4251,"awakened":4252,"comforts":4253,"regarded":4254,"repine":4255,"husbands":4256,"liveliness":4257,"eks":4258,"pains":4259,"promising":4260,"trade":4261,"necessarily":4262,"breath":4263,"senses":4264,"careful":4265,"beauties":4266,"accepting":4267,"acceptance":4268,"path":4269,"pale":4270,"convince":4271,"imagination":4272,"wisely":4273,"officious":4274,"handsomest":4275,"active":4276,"activity":4277,"check":4278,"cheeks":4279,"situated":4280,"confused":4281,"gravity":4282,"putting":4283,"headstrong":4284,"Without":4285,"capital":4286,"caprice":4287,"sorrow":4288,"introducing":4289,"charms":4290,"designs":4291,"claimed":4292,"elev":4293,"slightly":4294,"attempted":4295,"attempting":4296,"shows":4297,"showing":4298,"assuring":4299,"deserves":4300,"needless":4301,"solely":4302,"water":4303,"enjoying":4304,"assisted":4305,"occurrence":4306,"guardians":4307,"fancying":4308,"humi":4309,"humbled":4310,"perceiving":4311,"confessed":4312,"Everything":4313,"Everybody":4314,"embr":4315,"rapidity":4316,"infli":4317,"absolute":4318,"stream":4319,"Carter":4320,"ronted":4321,"rejoicing":4322,"ableness":4323,"contrast":4324,"contradi":4325,"employments":4326,"buy":4327,"build":4328,"residence":4329,"professed":4330,"glancing":4331,"sical":4332,"striking":4333,"amazed":4334,"examined":4335,"examining":4336,"prospects":4337,"happens":4338,"hints":4339,"leads":4340,"entreaties":4341,"quickly":4342,"excessive":4343,"recommendation":4344,"paying":4345,"gravely":4346,"decidedly":4347,"drive":4348,"driving":4349,"furnish":4350,"succeeding":4351,"suspicions":4352,"flattering":4353,"debt":4354,"affability":4355,"affront":4356,"supported":4357,"bride":4358,"briefly":4359,"higher":4360,"defy":4361,"advance":4362,"exclaiming":4363,"disguise":4364,"misfortunes":4365,"apologising":4366,"benefited":4367,"hastened":4368,"inconvenient":4369,"encouraging":4370,"abominably":4371,"preserve":4372,"preserved":4373,"voluntary":4374,"North":4375,"fifteen":4376,"freely":4377,"arguments":4378,"started":4379,"studying":4380,"pretending":4381,"attendance":4382,"blessed":4383,"blessing":4384,"collection":4385,"travellers":4386,"sickly":4387,"announce":4388,"rejected":4389,"steadfast":4390,"impul":4391,"impud":4392,"militia":4393,"attractions":4394,"attribute":4395,"contrivance":4396,"distinguish":4397,"cordiality":4398,"ridiculous":4399,"calmness":4400,"benevol":4401,"fishing":4402,"animation":4403,"ceremon":4404,"destined":4405,"suggest":4406,"exist":4407,"insensible":4408,"sports":4409,"carrying":4410,"complaints":4411,"intelligent":4412,"original":4413,"killed":4414,"warn":4415,"infamy":4416,"infamous":4417,"stupidity":4418,"confirmation":4419,"extravagance":4420,"extravagant":4421,"witnessed":4422,"cruelty":4423,"scruples":4424,"camp":4425,"fatigue":4426,"salutation":4427,"injured":4428,"deliberation":4429,"converse":4430,"jealousy":4431,"grandeur":4432,"patronage":4433,"betrayed":4434,"INE":4435,"apartment":4436,"cherished":4437,"score":4438,"slowly":4439,"infinitely":4440,"amidst":4441,"experienced":4442,"discern":4443,"sharp":4444,"copse":4445,"anticipated":4446,"honestly":4447,"bbery":4448,"flutter":4449,"frankness":4450,"narrow":4451,"sincerity":4452,"insolent":4453,"hackney":4454,"extensive":4455,"execution":4456,"preceding":4457,"imputed":4458,"protesting":4459,"size":4460,"shrubbery":4461,"strangers":4462,"promote":4463,"curtse":4464,"captiv":4465,"simpleton":4466,"splendid":4467,"Clapham":4468,"Captain":4469,"True":4470,"Thursday":4471,"dirty":4472,"freedom":4473,"phaeton":4474,"vouch":4475,"valley":4476,"heavy":4477,"incumbent":4478,"forcibly":4479,"delivered":4480,"contemplation":4481,"unpardonable":4482,"quadrille":4483,"prodigi":4484,"Newcastle":4485,"occurrences":4486,"!)":4487,":—":4488,"Ano":4489,"Again":4490,"Bet":4491,"DINE":4492,"Eas":4493,"Eps":4494,"Five":4495,"Gould":4496,"Gener":4497,"GAR":4498,"Hap":4499,"IA":4500,"June":4501,"LL":4502,"La":4503,"Le":4504,"Madam":4505,"Mamma":4506,"Other":4507,"Pardon":4508,"Ram":4509,"Rob":4510,"Ser":4511,"Scar":4512,"Ten":4513,"Tis":4514,"Take":4515,"Was":4516,"Would":4517,"ale":4518,"awe":4519,"athing":4520,"bon":4521,"bent":4522,"burst":4523,"cdo":4524,"cus":4525,"cence":4526,"cry":4527,"cert":4528,"cated":4529,"cended":4530,"crit":4531,"ds":4532,"dy":4533,"dup":4534,"dying":4535,"daily":4536,"eel":4537,"elly":4538,"etor":4539,"etest":4540,"fid":4541,"fill":4542,"fru":4543,"flight":4544,"faced":4545,"gar":4546,"gal":4547,"gay":4548,"god":4549,"gaining":4550,"ier":4551,"ivid":4552,"iatures":4553,"kiss":4554,"keness":4555,"lence":4556,"mouth":4557,"midd":4558,"nup":4559,"oted":4560,"olive":4561,"oting":4562,"py":4563,"pou":4564,"pom":4565,"pad":4566,"pous":4567,"pence":4568,"page":4569,"rou":4570,"rusion":4571,"san":4572,"sley":4573,"swell":4574,"slin":4575,"sgate":4576,"skill":4577,"tu":4578,"tid":4579,"treas":4580,"tition":4581,"ug":4582,"uct":4583,"vable":4584,"vic":4585,"vul":4586,"vast":4587,"vive":4588,"whim":4589,"wine":4590,"wind":4591,"zz":4592,"inct":4593,"incess":4594,"invent":4595,"incivility":4596,"insupport":4597,"invaluable":4598,"inhabit":4599,"ante":4600,"reve":4601,"rever":4602,"reven":4603,"reck":4604,"review":4605,"reaching":4606,"reprehen":4607,"respected":4608,"recit":4609,"retired":4610,"rewarded":4611,"ons":4612,"ony":4613,"thly":4614,"ening":4615,"enab":4616,"enes":4617,"enest":4618,"encounter":4619,"envelo":4620,"atious":4621,"attor":4622,"atively":4623,"isy":4624,"ascertain":4625,"ascended":4626,"andalous":4627,"belonged":4628,"beholding":4629,"army":4630,"ites":4631,"itute":4632,"itality":4633,"lled":4634,"ornam":4635,"hair":4636,"noise":4637,"noisy":4638,"ston":4639,"stir":4640,"stro":4641,"stif":4642,"stout":4643,"stately":4644,"stret":4645,"stating":4646,"seven":4647,"secur":4648,"seren":4649,"omer":4650,"cease":4651,"lid":4652,"liking":4653,"liating":4654,"likeness":4655,"wido":4656,"wicked":4657,"hip":4658,"entre":4659,"forgiven":4660,"forgiving":4661,"defi":4662,"deign":4663,"deeper":4664,"decent":4665,"demn":4666,"detained":4667,"develo":4668,"dejection":4669,"decis":4670,"notions":4671,"neat":4672,"member":4673,"ween":4674,"weary":4675,"wealth":4676,"sume":4677,"suited":4678,"thern":4679,"withdrawn":4680,"ctive":4681,"irk":4682,"adap":4683,"adorned":4684,"iding":4685,"hot":4686,"hosp":4687,"solid":4688,"conqu":4689,"condo":4690,"confir":4691,"conquest":4692,"constru":4693,"consist":4694,"concise":4695,"concert":4696,"condemn":4697,"ript":4698,"rob":4699,"abusing":4700,"ague":4701,"amount":4702,"move":4703,"unti":4704,"unconcern":4705,"unsettled":4706,"unconsci":4707,"ungenerous":4708,"unreserved":4709,"unhappily":4710,"unluckily":4711,"undeserving":4712,"ghty":4713,"pool":4714,"powered":4715,"compr":4716,"complied":4717,"competition":4718,"muslin":4719,"save":4720,"saved":4721,"saving":4722,"lotter":4723,"lock":4724,"tier":4725,"tials":4726,"ticoat":4727,"que":4728,"acced":4729,"kets":4730,"keenest":4731,"whilst":4732,"exact":4733,"explicit":4734,"exhib":4735,"dock":4736,"urgent":4737,"urbed":4738,"telp":4739,"presum":4740,"preaching":4741,"ows":4742,"owal":4743,"ically":4744,"odious":4745,"disp":4746,"disrespect":4747,"discredit":4748,"discomposure":4749,"discontented":4750,"dismissed":4751,"disconcert":4752,"follies":4753,"impartial":4754,"parsonage":4755,"propose":4756,"propri":4757,"procur":4758,"mantelp":4759,"ulity":4760,"sip":4761,"faulty":4762,"failed":4763,"indic":4764,"individ":4765,"shan":4766,"audi":4767,"canv":4768,"forever":4769,"anecdo":4770,"raising":4771,"villy":4772,"died":4773,"divide":4774,"diverted":4775,"sisterly":4776,"oked":4777,"plans":4778,"placing":4779,"plague":4780,"upper":4781,"obtain":4782,"civilly":4783,"meditated":4784,"meditating":4785,"happier":4786,"pleasan":4787,"coar":4788,"colonel":4789,"cool":4790,"covering":4791,"intrusion":4792,"afternoon":4793,"frivol":4794,"owned":4795,"oppose":4796,"opposition":4797,"fight":4798,"derive":4799,"rude":4800,"lieve":4801,"surely":4802,"jum":4803,"offend":4804,"offending":4805,"offense":4806,"screen":4807,"scenes":4808,"scandalous":4809,"script":4810,"mbling":4811,"mbrance":4812,"dearly":4813,"overlook":4814,"overcame":4815,"overheard":4816,"overlooked":4817,"overthrown":4818,"overpowered":4819,"contribut":4820,"contracted":4821,"ltry":4822,"grou":4823,"grity":4824,"adds":4825,"box":4826,"bold":4827,"intoler":4828,"earlier":4829,"formality":4830,"housemaid":4831,"housekeeping":4832,"walks":4833,"walker":4834,"surround":4835,"joke":4836,"portra":4837,"white":4838,"justly":4839,"solitude":4840,"submit":4841,"tedly":4842,"attentively":4843,"sensical":4844,"genteel":4845,"misunderstand":4846,"mischief":4847,"reader":4848,"speaks":4849,"lovely":4850,"acquies":4851,"indelic":4852,"relative":4853,"relates":4854,"reluct":4855,"presents":4856,"oftener":4857,"volu":4858,"gue":4859,"writer":4860,"handed":4861,"momentary":4862,"interview":4863,"intermission":4864,"native":4865,"agreeing":4866,"cks":4867,"farm":4868,"hereafter":4869,"require":4870,"continual":4871,"easiness":4872,"founded":4873,"appears":4874,"northern":4875,"considerably":4876,"refrain":4877,"uncles":4878,"answering":4879,"answerable":4880,"comply":4881,"compared":4882,"complying":4883,"characters":4884,"oubtedly":4885,"settling":4886,"conversing":4887,"disturb":4888,"distracted":4889,"recovery":4890,"favourably":4891,"silently":4892,"resolutely":4893,"courses":4894,"respecting":4895,"minutely":4896,"miniatures":4897,"inviting":4898,"meanly":4899,"objecting":4900,"People":4901,"equi":4902,"hesitation":4903,"hesitated":4904,"hesitate":4905,"integrity":4906,"repent":4907,"reputation":4908,"repaired":4909,"powerful":4910,"later":4911,"liveliest":4912,"promises":4913,"ception":4914,"determination":4915,"busily":4916,"list":4917,"breach":4918,"denied":4919,"accounts":4920,"accounting":4921,"carefully":4922,"repetition":4923,"listener":4924,"throughout":4925,"descent":4926,"descended":4927,"wonders":4928,"wonderful":4929,"paused":4930,"tors":4931,"tort":4932,"acting":4933,"fearing":4934,"shoot":4935,"seeming":4936,"openness":4937,"blaming":4938,"angel":4939,"hills":4940,"addressing":4941,"merry":4942,"conceive":4943,"bearing":4944,"viewing":4945,"judging":4946,"acknowledgment":4947,"keeps":4948,"disappointing":4949,"remembrance":4950,"dependent":4951,"pleasantness":4952,"Phillip":4953,"poorly":4954,"approved":4955,"hypoc":4956,"assume":4957,"offering":4958,"horrid":4959,"secondly":4960,"faces":4961,"admirable":4962,"complimented":4963,"slighted":4964,"slightest":4965,"resented":4966,"explaining":4967,"replying":4968,"removing":4969,"learned":4970,"needed":4971,"signify":4972,"reflected":4973,"questioned":4974,"successful":4975,"singing":4976,"decease":4977,"comprehen":4978,"excepting":4979,"grief":4980,"regrets":4981,"quartered":4982,"effects":4983,"effectually":4984,"regimentals":4985,"admirer":4986,"comprehended":4987,"confession":4988,"comparative":4989,"comparatively":4990,"willingness":4991,"violence":4992,"griev":4993,"grieve":4994,"grievous":4995,"borrow":4996,"bordering":4997,"puzz":4998,"reserves":4999,"suitableness":5000,"pens":5001,"penet":5002,"tendency":5003,"separated":5004,"negative":5005,"convenience":5006,"amusements":5007,"accomplishment":5008,"partners":5009,"communicate":5010,"communicated":5011,"waiter":5012,"built":5013,"fallen":5014,"falling":5015,"——,":5016,"instructions":5017,"bowed":5018,"creatures":5019,"rationally":5020,"constantly":5021,"examination":5022,"planned":5023,"objectionable":5024,"punish":5025,"quickness":5026,"excite":5027,"ponies":5028,"despise":5029,"despised":5030,"despaired":5031,"gratefully":5032,"gravel":5033,"avowed":5034,"avowal":5035,"eloqu":5036,"sweetest":5037,"educated":5038,"condescend":5039,"speeches":5040,"colouring":5041,"publicly":5042,"changing":5043,"alternative":5044,"conjectures":5045,"consoling":5046,"petticoat":5047,"affli":5048,"pronounce":5049,"privately":5050,"hurrying":5051,"Before":5052,"Believe":5053,"thirty":5054,"defend":5055,"safely":5056,"disgusted":5057,"assertion":5058,"assertions":5059,"clearly":5060,"awkwardness":5061,"whispering":5062,"varied":5063,"throwing":5064,"desperate":5065,"unwillingness":5066,"extended":5067,"preferment":5068,"preferred":5069,"stopping":5070,"quarters":5071,"raptur":5072,"accidental":5073,"accidentally":5074,"cruelly":5075,"total":5076,"postscript":5077,"collected":5078,"contentment":5079,"purchased":5080,"unexpectedly":5081,"Sometimes":5082,"nonsensical":5083,"pitied":5084,"pitiable":5085,"announced":5086,"steadily":5087,"advised":5088,"tickets":5089,"attraction":5090,"attracted":5091,"contrive":5092,"contrived":5093,"handsomer":5094,"cordial":5095,"cordially":5096,"obligations":5097,"secretly":5098,"peculiarly":5099,"discussed":5100,"bidding":5101,"yielding":5102,"animated":5103,"errors":5104,"adieu":5105,"existed":5106,"expenses":5107,"disdained":5108,"displayed":5109,"incredulous":5110,"incredible":5111,"incredulity":5112,"summons":5113,"confident":5114,"tenderness":5115,"sources":5116,"growing":5117,"stupid":5118,"measures":5119,"composedly":5120,"dignified":5121,"positive":5122,"positions":5123,"guessed":5124,"politely":5125,"humanity":5126,"Annesley":5127,"punctually":5128,"punctual":5129,"lamentations":5130,"inferiority":5131,"fatigued":5132,"wounded":5133,"injuri":5134,"involved":5135,"provoking":5136,"provoked":5137,"attacks":5138,"boys":5139,"intervals":5140,"significant":5141,"struggles":5142,"universal":5143,"universally":5144,"studied":5145,"banish":5146,"banished":5147,"sinking":5148,"varying":5149,"wandering":5150,"restoration":5151,"widely":5152,"detached":5153,"pocket":5154,"applying":5155,"offenses":5156,"offensive":5157,"substance":5158,"sensation":5159,"sensations":5160,"privilege":5161,"privileged":5162,"dropped":5163,"accusations":5164,"Most":5165,"farewell":5166,"gloom":5167,"reliance":5168,"envy":5169,"haughty":5170,"stationed":5171,"wilful":5172,"devoted":5173,"message":5174,"perseverance":5175,"previous":5176,"discharged":5177,"prosperity":5178,"calculated":5179,"uniformly":5180,"exclamations":5181,"obstinate":5182,"Both":5183,"Undoubtedly":5184,"candour":5185,"crowded":5186,"fingers":5187,"grove":5188,"obeyed":5189,"tongue":5190,"insignificance":5191,"rector":5192,"render":5193,"revived":5194,"habits":5195,"selected":5196,"deprived":5197,"alliance":5198,"irritation":5199,"adopt":5200,"fetch":5201,"abundantly":5202,"unassuming":5203,"perpetually":5204,"inevitable":5205,"faithful":5206,"diversion":5207,"observations":5208,"guardianship":5209,"building":5210,"steadfastly":5211,"impulse":5212,"impudence":5213,"benevolence":5214,"ceremonious":5215,"existence":5216,"curtsey":5217,"prodigiously":5218,"Another":5219,"Between":5220,"DINER":5221,"Easter":5222,"Epsom":5223,"GARDINER":5224,"Lewis":5225,"Ramsgate":5226,"Robinson":5227,"bonnet":5228,"fidget":5229,"middle":5230,"nuptials":5231,"poultry":5232,"pompous":5233,"paddock":5234,"route":5235,"sanction":5236,"tumult":5237,"tidings":5238,"vulgar":5239,"insupportable":5240,"inhabitants":5241,"reveal":5242,"reprehensible":5243,"recital":5244,"envelope":5245,"attorney":5246,"stiff":5247,"stretch":5248,"security":5249,"serenity":5250,"widow":5251,"defiance":5252,"deigned":5253,"develop":5254,"adapted":5255,"hospitality":5256,"confirmed":5257,"consistent":5258,"until":5259,"unconsciously":5260,"lottery":5261,"presumption":5262,"disconcerted":5263,"proprietor":5264,"procuring":5265,"mantelpiece":5266,"frivolous":5267,"intolerable":5268,"Ac":5269,"Al":5270,"Am":5271,"Ar":5272,"Adi":5273,"Bl":5274,"Bar":5275,"Bro":5276,"Bes":5277,"Brit":5278,"Che":5279,"DE":5280,"De":5281,"Don":5282,"During":5283,"EN":5284,"Even":5285,"Far":5286,"Fir":5287,"Go":5288,"Gro":5289,"Give":5290,"Gret":5291,"Green":5292,"Harri":5293,"Hagger":5294,"ILL":5295,"Ju":5296,"Jan":5297,"Joh":5298,"Little":5299,"MY":5300,"Mat":5301,"Mic":5302,"Make":5303,"Mil":5304,"Mount":5305,"March":5306,"Ni":5307,"Non":5308,"Nob":5309,"Next":5310,"Ob":5311,"Oc":5312,"Or":5313,"Put":5314,"Pride":5315,"Say":5316,"Sure":5317,"Tease":5318,"Vain":5319,"Whe":5320,"War":5321,"WILL":5322,"ax":5323,"action":5324,"alike":5325,"alive":5326,"bing":5327,"bal":5328,"bill":5329,"burn":5330,"braid":5331,"blow":5332,"bank":5333,"bathing":5334,"city":5335,"cure":5336,"cary":5337,"cising":5338,"crown":5339,"cuni":5340,"dur":5341,"dim":5342,"date":5343,"dated":5344,"double":5345,"domin":5346,"dirt":5347,"ere":5348,"epe":5349,"eus":5350,"evi":5351,"emin":5352,"eating":5353,"ff":5354,"fon":5355,"fle":5356,"flo":5357,"fate":5358,"fra":5359,"fted":5360,"flu":5361,"flying":5362,"fronted":5363,"gli":5364,"gam":5365,"gning":5366,"gments":5367,"gacy":5368,"gross":5369,"gates":5370,"gaily":5371,"gathe":5372,"hang":5373,"ie":5374,"ius":5375,"ipt":5376,"ilet":5377,"ibly":5378,"iancy":5379,"itors":5380,"kni":5381,"lag":5382,"laughter":5383,"lingly":5384,"ltered":5385,"mag":5386,"mble":5387,"mort":5388,"mise":5389,"mitted":5390,"na":5391,"nal":5392,"nine":5393,"nings":5394,"numer":5395,"othe":5396,"oon":5397,"ost":5398,"por":5399,"pour":5400,"pti":5401,"pane":5402,"pure":5403,"pair":5404,"pack":5405,"pular":5406,"rm":5407,"rs":5408,"ram":5409,"rant":5410,"rage":5411,"ratt":5412,"rated":5413,"rise":5414,"rallied":5415,"sof":5416,"som":5417,"sne":5418,"sven":5419,"smar":5420,"sider":5421,"scho":5422,"sses":5423,"spark":5424,"sangu":5425,"sket":5426,"sided":5427,"tac":5428,"tite":5429,"tax":5430,"uine":5431,"uity":5432,"uous":5433,"uary":5434,"ugn":5435,"uating":5436,"uality":5437,"uber":5438,"voc":5439,"vative":5440,"vindic":5441,"ware":5442,"wave":5443,"xity":5444,"ym":5445,"zen":5446,"zed":5447,"’,":5448,"“‘":5449,"“’":5450,"heaven":5451,"inve":5452,"indis":5453,"inexpress":5454,"inattention":5455,"infancy":5456,"insuffer":5457,"indisposed":5458,"insult":5459,"inattentive":5460,"involuntarily":5461,"inspection":5462,"insip":5463,"incomprehen":5464,"resis":5465,"reel":5466,"remed":5467,"revo":5468,"recall":5469,"recalled":5470,"reference":5471,"revol":5472,"repressed":5473,"rejection":5474,"resuming":5475,"retire":5476,"thecary":5477,"oul":5478,"oned":5479,"eration":5480,"thread":5481,"threat":5482,"thood":5483,"envi":5484,"ensure":5485,"ensign":5486,"ensed":5487,"ature":5488,"attered":5489,"tomed":5490,"toilet":5491,"ision":5492,"isite":5493,"istic":5494,"isms":5495,"asy":5496,"ases":5497,"asol":5498,"asperate":5499,"edge":5500,"edged":5501,"befall":5502,"bewit":5503,"beloved":5504,"beheld":5505,"arro":5506,"around":5507,"arrested":5508,"itance":5509,"itful":5510,"itions":5511,"itative":5512,"itiously":5513,"lls":5514,"lling":5515,"lliner":5516,"lliancy":5517,"orn":5518,"hael":5519,"haute":5520,"lebr":5521,"lease":5522,"stated":5523,"stren":5524,"staid":5525,"stasy":5526,"secl":5527,"omen":5528,"cels":5529,"celebr":5530,"chin":5531,"chan":5532,"lial":5533,"livery":5534,"liable":5535,"lious":5536,"ligence":5537,"lifted":5538,"hide":5539,"entious":5540,"vert":5541,"verish":5542,"verty":5543,"veracity":5544,"forfe":5545,"deli":5546,"departed":5547,"decen":5548,"depressed":5549,"deception":5550,"deepe":5551,"ghthood":5552,"sheltered":5553,"wet":5554,"wear":5555,"weig":5556,"sured":5557,"suaded":5558,"alas":5559,"cts":5560,"allusions":5561,"allevi":5562,"irre":5563,"irrit":5564,"adventure":5565,"idance":5566,"idious":5567,"idleness":5568,"hote":5569,"soled":5570,"soothe":5571,"conju":5572,"concur":5573,"consign":5574,"condem":5575,"fell":5576,"feather":5577,"feature":5578,"feverish":5579,"ricle":5580,"rival":5581,"rode":5582,"robor":5583,"royed":5584,"abus":5585,"abuse":5586,"abused":5587,"agon":5588,"ours":5589,"amp":5590,"amed":5591,"ample":5592,"amply":5593,"movable":5594,"peev":5595,"pecuni":5596,"unk":5597,"unab":5598,"undo":5599,"unction":5600,"unite":5601,"unwell":5602,"uncertain":5603,"unfelt":5604,"unhappiness":5605,"unaccount":5606,"unfeeling":5607,"unavoid":5608,"unnatural":5609,"unconcerned":5610,"unav":5611,"unfavourable":5612,"unfit":5613,"unfortunately":5614,"unsuitable":5615,"unforgiving":5616,"poll":5617,"poet":5618,"popular":5619,"poverty":5620,"esy":5621,"esign":5622,"sactions":5623,"sakes":5624,"loo":5625,"loving":5626,"tian":5627,"tide":5628,"ties":5629,"quate":5630,"quality":5631,"ache":5632,"acco":5633,"aches":5634,"acute":5635,"acles":5636,"accur":5637,"aculous":5638,"whither":5639,"whiche":5640,"excu":5641,"exposed":5642,"exhau":5643,"exagger":5644,"expence":5645,"exuber":5646,"exasperate":5647,"hates":5648,"doings":5649,"dozen":5650,"ards":5651,"ardently":5652,"tear":5653,"teaching":5654,"teased":5655,"pers":5656,"perple":5657,"performer":5658,"persist":5659,"persisted":5660,"endless":5661,"prey":5662,"prehend":5663,"prepossession":5664,"precious":5665,"presume":5666,"predomin":5667,"yourselves":5668,"ifiable":5669,"ifully":5670,"ics":5671,"outstri":5672,"discour":5673,"disput":5674,"disengaged":5675,"discourage":5676,"disinclination":5677,"disposal":5678,"distrust":5679,"disgrac":5680,"discharge":5681,"disadvantages":5682,"discomposed":5683,"foot":5684,"footing":5685,"impose":5686,"improper":5687,"implicit":5688,"imony":5689,"immovable":5690,"goes":5691,"affir":5692,"affin":5693,"theirs":5694,"parade":5695,"parasol":5696,"parcels":5697,"project":5698,"provis":5699,"usage":5700,"manor":5701,"mansion":5702,"somehow":5703,"sigh":5704,"sibly":5705,"thereby":5706,"thereupon":5707,"sists":5708,"mix":5709,"mixed":5710,"milliner":5711,"indire":5712,"shor":5713,"apside":5714,"apsed":5715,"apprehend":5716,"plead":5717,"augment":5718,"foreseen":5719,"vig":5720,"vivac":5721,"dilat":5722,"dialo":5723,"whence":5724,"encement":5725,"oks":5726,"plent":5727,"plac":5728,"plant":5729,"everywhere":5730,"upbraid":5731,"market":5732,"aking":5733,"tening":5734,"tenants":5735,"elapsed":5736,"illu":5737,"illness":5738,"speci":5739,"obtru":5740,"obsequ":5741,"cies":5742,"ciety":5743,"cipat":5744,"cilious":5745,"meditation":5746,"meditate":5747,"pleases":5748,"coinc":5749,"covered":5750,"jewel":5751,"insince":5752,"worn":5753,"prone":5754,"intently":5755,"intric":5756,"serve":5757,"serving":5758,"spass":5759,"space":5760,"sphere":5761,"shade":5762,"shape":5763,"shake":5764,"shaking":5765,"goodwill":5766,"oppressed":5767,"turns":5768,"turnpi":5769,"filial":5770,"derision":5771,"partly":5772,"partake":5773,"plies":5774,"rule":5775,"ruined":5776,"ruden":5777,"greatness":5778,"lieu":5779,"offence":5780,"scattered":5781,"longing":5782,"firmest":5783,"class":5784,"evenness":5785,"hearted":5786,"hearty":5787,"lesson":5788,"assed":5789,"assid":5790,"mbarrass":5791,"wore":5792,"woody":5793,"overhear":5794,"overpower":5795,"overflow":5796,"contro":5797,"containing":5798,"shift":5799,"board":5800,"bott":5801,"bosom":5802,"thoughtless":5803,"thoughtfulness":5804,"thoughtlessness":5805,"earl":5806,"forms":5807,"mornings":5808,"suppress":5809,"supplied":5810,"suppressed":5811,"lighted":5812,"lasting":5813,"satin":5814,"surve":5815,"survi":5816,"survive":5817,"surmise":5818,"courted":5819,"receipt":5820,"begun":5821,"begging":5822,"abouts":5823,"commended":5824,"commencement":5825,"passage":5826,"passages":5827,"subsisted":5828,"subsisting":5829,"appeal":5830,"appetite":5831,"cleared":5832,"sons":5833,"Instead":5834,"gniz":5835,"sensibility":5836,"sensibly":5837,"restrained":5838,"returns":5839,"brain":5840,"brink":5841,"undergone":5842,"mises":5843,"misconduct":5844,"misrepresented":5845,"mistakes":5846,"kinder":5847,"hence":5848,"loves":5849,"loveliness":5850,"acquit":5851,"acquired":5852,"expressive":5853,"expressively":5854,"presented":5855,"presently":5856,"broke":5857,"prior":5858,"price":5859,"guide":5860,"guided":5861,"guidance":5862,"unembarrass":5863,"instinct":5864,"acquaint":5865,"mates":5866,"mative":5867,"storm":5868,"brothers":5869,"brotherly":5870,"essenti":5871,"essential":5872,"stands":5873,"excel":5874,"termination":5875,"hereabouts":5876,"continuing":5877,"caring":5878,"minded":5879,"delights":5880,"licence":5881,"gratify":5882,"spots":5883,"spoilt":5884,"rightly":5885,"compati":5886,"gardener":5887,"characteristic":5888,"smilingly":5889,"observer":5890,"worldly":5891,"perfections":5892,"setting":5893,"disturbed":5894,"recogniz":5895,"allowance":5896,"favours":5897,"favourites":5898,"leaves":5899,"personal":5900,"resolve":5901,"Forgive":5902,"temptations":5903,"hardship":5904,"treating":5905,"trespass":5906,"cholls":5907,"acken":5908,"awed":5909,"awful":5910,"awake":5911,"fications":5912,"invari":5913,"connect":5914,"comfortably":5915,"purport":5916,"meets":5917,"meetings":5918,"directing":5919,"regardless":5920,"repul":5921,"repining":5922,"repaid":5923,"reputed":5924,"repugn":5925,"incur":5926,"incensed":5927,"retro":5928,"retained":5929,"retaining":5930,"corrobor":5931,"paint":5932,"painfully":5933,"prompt":5934,"trades":5935,"determining":5936,"generality":5937,"neighbouring":5938,"arrive":5939,"honours":5940,"circumspection":5941,"fervent":5942,"fairly":5943,"breast":5944,"denoted":5945,"accounted":5946,"backgam":5947,"cares":5948,"careless":5949,"carelessness":5950,"scarlet":5951,"doubts":5952,"doubting":5953,"doubtless":5954,"doubtful":5955,"sterity":5956,"astonish":5957,"curricle":5958,"descending":5959,"wondering":5960,"wonderfully":5961,"closure":5962,"pales":5963,"pausing":5964,"torment":5965,"handsomely":5966,"advantageous":5967,"advantageously":5968,"checking":5969,"fastidious":5970,"joyful":5971,"shock":5972,"headache":5973,"included":5974,"including":5975,"playful":5976,"players":5977,"playfulness":5978,"Within":5979,"empt":5980,"trans":5981,"traced":5982,"trunk":5983,"viding":5984,"merited":5985,"informing":5986,"decline":5987,"bears":5988,"dinners":5989,"praised":5990,"praises":5991,"judgment":5992,"creditors":5993,"trim":5994,"trial":5995,"social":5996,"acknowledgments":5997,"fourth":5998,"finest":5999,"depending":6000,"marks":6001,"pleasantry":6002,"creditable":6003,"forwarded":6004,"charmingly":6005,"masters":6006,"laughingly":6007,"breaking":6008,"admiring":6009,"resentful":6010,"resentfully":6011,"recommending":6012,"worthless":6013,"exceeded":6014,"remove":6015,"polished":6016,"earnestness":6017,"Thought":6018,"intimid":6019,"intimately":6020,"conducted":6021,"extracts":6022,"improves":6023,"signal":6024,"profit":6025,"profli":6026,"profic":6027,"interrupting":6028,"anxiously":6029,"successfully":6030,"adequate":6031,"singled":6032,"singular":6033,"assisting":6034,"staircase":6035,"deceiving":6036,"deceitful":6037,"coldly":6038,"exception":6039,"dreadfully":6040,"vanished":6041,"indolence":6042,"regretting":6043,"completed":6044,"quarre":6045,"occurring":6046,"gratulation":6047,"avoiding":6048,"gyric":6049,"suspended":6050,"emphat":6051,"nephews":6052,"apothecary":6053,"ides":6054,"ridge":6055,"relieve":6056,"congratulated":6057,"concealment":6058,"admires":6059,"statement":6060,"comparing":6061,"aughts":6062,"violation":6063,"excellence":6064,"remembering":6065,"bordered":6066,"laying":6067,"missent":6068,"forgetting":6069,"possessed":6070,"possessor":6071,"describing":6072,"Anx":6073,"Any":6074,"duties":6075,"dutifully":6076,"dropt":6077,"pauses":6078,"desiring":6079,"contrari":6080,"trusting":6081,"falls":6082,"——’":6083,"representing":6084,"testified":6085,"testimony":6086,"perturb":6087,"prevail":6088,"prevailing":6089,"instruction":6090,"suffering":6091,"sufferings":6092,"quieted":6093,"Soon":6094,"Society":6095,"bows":6096,"glor":6097,"glass":6098,"reproached":6099,"strict":6100,"striving":6101,"amazing":6102,"examine":6103,"planning":6104,"happening":6105,"cheering":6106,"cheerfully":6107,"landlord":6108,"assemblies":6109,"liberally":6110,"liberality":6111,"excused":6112,"exciting":6113,"requested":6114,"requesting":6115,"intentionally":6116,"Pratt":6117,"older":6118,"sym":6119,"despic":6120,"despising":6121,"consented":6122,"compassionate":6123,"authorised":6124,"authoritative":6125,"maternal":6126,"pictures":6127,"censured":6128,"drily":6129,"transports":6130,"transactions":6131,"renewing":6132,"vexatious":6133,"model":6134,"modest":6135,"affording":6136,"indulged":6137,"apprehensions":6138,"establish":6139,"suspicious":6140,"triumphant":6141,"triumphantly":6142,"conjecturing":6143,"conjectured":6144,"exerted":6145,"affronted":6146,"boasted":6147,"neglected":6148,"neglecting":6149,"Because":6150,"alid":6151,"brilliancy":6152,"defence":6153,"defined":6154,"undert":6155,"shameful":6156,"closest":6157,"watchfulness":6158,"apologies":6159,"apologised":6160,"benefic":6161,"hastening":6162,"wretchedness":6163,"antic":6164,"antial":6165,"anticipat":6166,"soliciting":6167,"abominate":6168,"preservation":6169,"preservative":6170,"induced":6171,"indignant":6172,"indignity":6173,"coachman":6174,"rapture":6175,"crossing":6176,"variation":6177,"ankles":6178,"fellows":6179,"accused":6180,"accents":6181,"pretended":6182,"prettier":6183,"governed":6184,"protection":6185,"collect":6186,"collecting":6187,"anguish":6188,"purchases":6189,"pursued":6190,"pursuing":6191,"correct":6192,"spiritless":6193,"explanations":6194,"Something":6195,"draughts":6196,"fashions":6197,"pitiful":6198,"ritical":6199,"vague":6200,"annum":6201,"rejecting":6202,"archly":6203,"memories":6204,"females":6205,"speedy":6206,"scrupled":6207,"additional":6208,"settlement":6209,"regulars":6210,"Scotch":6211,"blue":6212,"ecstasy":6213,"gowns":6214,"yielded":6215,"destroyed":6216,"adieus":6217,"concili":6218,"existing":6219,"preparations":6220,"ification":6221,"displaying":6222,"failing":6223,"commanded":6224,"occupy":6225,"confiding":6226,"confidante":6227,"blinded":6228,"practises":6229,"bitterly":6230,"tenderly":6231,"thirdly":6232,"correspondent":6233,"originally":6234,"originated":6235,"mpse":6236,"slee":6237,"warmest":6238,"seats":6239,"superintend":6240,"supercilious":6241,"consisted":6242,"confirming":6243,"unjustly":6244,"unjustifiable":6245,"exercising":6246,"estimable":6247,"positively":6248,"courtship":6249,"courtesy":6250,"Christian":6251,"independent":6252,"imaginable":6253,"pieces":6254,"counteracted":6255,"quarreling":6256,"punctuality":6257,"tranquil":6258,"inconveniences":6259,"flirting":6260,"absurdities":6261,"Impossible":6262,"birds":6263,"etiquet":6264,"finery":6265,"fretfully":6266,"fretfulness":6267,"owes":6268,"saloon":6269,"talent":6270,"wounding":6271,"involve":6272,"involving":6273,"deficiency":6274,"deliberately":6275,"suspecting":6276,"consulted":6277,"consulting":6278,"amendment":6279,"unaffectedly":6280,"obstacles":6281,"efforts":6282,"refreshing":6283,"struggled":6284,"similarity":6285,"familiarly":6286,"familiarity":6287,"springing":6288,"studies":6289,"lodges":6290,"prejudices":6291,"Consider":6292,"Exceed":6293,"Excuse":6294,"Remember":6295,"Unless":6296,"apartments":6297,"dark":6298,"daring":6299,"paltry":6300,"sadly":6301,"wandered":6302,"injure":6303,"restored":6304,"reconciled":6305,"reconciliation":6306,"belongs":6307,"detection":6308,"detected":6309,"modern":6310,"moderation":6311,"moderate":6312,"experience":6313,"sharing":6314,"pledged":6315,"affectation":6316,"substantial":6317,"conditionally":6318,"horseback":6319,"reproofs":6320,"accustomed":6321,"flirtation":6322,"symptoms":6323,"Allowing":6324,"More":6325,"barbar":6326,"brightest":6327,"cision":6328,"genius":6329,"genuine":6330,"gloomy":6331,"slave":6332,"slyness":6333,"wilfully":6334,"hitherto":6335,"deferred":6336,"convey":6337,"conveyed":6338,"accompanying":6339,"expedient":6340,"expeditiously":6341,"previously":6342,"discharging":6343,"prosperous":6344,"apparently":6345,"intrude":6346,"intruding":6347,"fixing":6348,"guilty":6349,"arranged":6350,"arranging":6351,"rapidly":6352,"thoroughly":6353,"consciousness":6354,"deserts":6355,"startled":6356,"cautioning":6357,"exclamation":6358,"obstinacy":6359,"articles":6360,"abruptly":6361,"abruptness":6362,"athed":6363,"boundary":6364,"chambermaid":6365,"faint":6366,"fainter":6367,"gaiety":6368,"gaieties":6369,"loudly":6370,"mirth":6371,"miraculous":6372,"maintain":6373,"maintained":6374,"mountains":6375,"soul":6376,"soup":6377,"scolding":6378,"winking":6379,"innocent":6380,"inheriting":6381,"inconsistency":6382,"inconsistencies":6383,"ensued":6384,"atonement":6385,"assented":6386,"ingenious":6387,"ingenuity":6388,"behaves":6389,"seized":6390,"detaining":6391,"aloof":6392,"tiresome":6393,"precipitate":6394,"precipitance":6395,"malice":6396,"malicious":6397,"mildness":6398,"shyness":6399,"inspired":6400,"sermons":6401,"effusion":6402,"effusions":6403,"circulation":6404,"breathless":6405,"elevated":6406,"humiliation":6407,"humiliating":6408,"embraced":6409,"embracing":6410,"inflict":6411,"contradict":6412,"distinguishing":6413,"discernment":6414,"sharpened":6415,"narrowly":6416,"captivating":6417,"Gouldings":6418,"General":6419,"Happy":6420,"IAM":6421,"Seriously":6422,"Scarcely":6423,"custom":6424,"crying":6425,"critic":6426,"duplicity":6427,"fruits":6428,"godson":6429,"kissed":6430,"mouths":6431,"treasure":6432,"ugly":6433,"whims":6434,"incessantly":6435,"revenge":6436,"enabled":6437,"ornaments":6438,"stroke":6439,"wickedness":6440,"entreated":6441,"forgiveness":6442,"decisive":6443,"neatness":6444,"irksome":6445,"solidity":6446,"conquer":6447,"condole":6448,"concisely":6449,"comprised":6450,"exhibition":6451,"dispute":6452,"individual":6453,"audience":6454,"canvassed":6455,"anecdote":6456,"pleasanter":6457,"coarseness":6458,"contribute":6459,"group":6460,"surrounding":6461,"portraits":6462,"acquiescence":6463,"indelicacy":6464,"reluctant":6465,"volume":6466,"Phillipses":6467,"hypocritical":6468,"grievances":6469,"puzzle":6470,"penetration":6471,"eloquent":6472,"rapturous":6473,"injurious":6474,"sanctioned":6475,"revealed":6476,"stiffness":6477,"development":6478,"Among":6479,"Adieu":6480,"Barnet":6481,"Brother":6482,"Besides":6483,"Cheapside":6484,"DEAR":6485,"Dearest":6486,"First":6487,"Grosven":6488,"Gretna":6489,"Harriet":6490,"Haggerston":6491,"January":6492,"John":6493,"Matlock":6494,"Michael":6495,"Militia":6496,"Nicholls":6497,"Nonsense":6498,"Nobody":6499,"WILLIAM":6500,"banks":6501,"duration":6502,"fonder":6503,"flew":6504,"glimpse":6505,"gathered":6506,"knighthood":6507,"lagged":6508,"mortal":6509,"numerous":6510,"ostent":6511,"panegyric":6512,"ramble":6513,"rattle":6514,"smart":6515,"school":6516,"sparkled":6517,"sanguine":6518,"sketch":6519,"tacit":6520,"vindication":6521,"warehouses":6522,"incomprehensible":6523,"resistance":6524,"remedy":6525,"revolt":6526,"retirement":6527,"threadbare":6528,"envied":6529,"toilette":6530,"arrog":6531,"hauteur":6532,"strenuously":6533,"celebrated":6534,"decency":6535,"deepest":6536,"weighed":6537,"irritable":6538,"conjugal":6539,"concurrence":6540,"condemned":6541,"abusive":6542,"peevish":6543,"pecuniary":6544,"unaccountable":6545,"unavailing":6546,"poetry":6547,"accosted":6548,"whichever":6549,"excuses":6550,"perplexity":6551,"outstrip":6552,"discouraged":6553,"disgracing":6554,"affirmative":6555,"affinity":6556,"provision":6557,"indirect":6558,"vivacity":6559,"dilatory":6560,"dialogue":6561,"special":6562,"obtruded":6563,"obsequious":6564,"insincere":6565,"intricate":6566,"rudeness":6567,"bottle":6568,"unembarrassed":6569,"instinctively":6570,"essentials":6571,"compatible":6572,"invariably":6573,"tradesman":6574,"backgammon":6575,"perturbation":6576,"anticipating":6577,"etiquette":6578,"Grosvenor":6579,"Michaelmas":6580,").":6581,".;":6582,"15":6583,"18":6584,"26":6585,":”":6586,":—“":6587,"Au":6588,"Ass":6589,"Ama":6590,"Ash":6591,"Away":6592,"Att":6593,"Apri":6594,"Aston":6595,"Bre":6596,"Ball":6597,"Bir":6598,"Brom":6599,"Bake":6600,"Bey":6601,"Bath":6602,"BIN":6603,"BEN":6604,"Boul":6605,"CO":6606,"CY":6607,"Cou":6608,"Cle":6609,"Call":6610,"Cho":6611,"Cam":6612,"Care":6613,"Chat":6614,"Conce":6615,"Clar":6616,"CAR":6617,"Chamber":6618,"DW":6619,"Day":6620,"Daughter":6621,"Dep":6622,"Daw":6623,"Dining":6624,"DAR":6625,"DIA":6626,"Dale":6627,"Design":6628,"ES":6629,"ET":6630,"EY":6631,"Ed":6632,"Es":6633,"Ever":6634,"East":6635,"Each":6636,"Eager":6637,"EDW":6638,"FI":6639,"FR":6640,"Fe":6641,"Fi":6642,"Fo":6643,"Fam":6644,"Find":6645,"Fren":6646,"Frid":6647,"Fatigu":6648,"GL":6649,"Girl":6650,"Great":6651,"Grant":6652,"Hu":6653,"Hon":6654,"Hat":6655,"Hay":6656,"Hate":6657,"Harr":6658,"IZ":6659,"Ir":6660,"Ign":6661,"IEN":6662,"Ke":6663,"Ken":6664,"Kym":6665,"LY":6666,"Li":6667,"Lo":6668,"Last":6669,"Lane":6670,"Laugh":6671,"Lately":6672,"LINE":6673,"LIZ":6674,"Me":6675,"Mu":6676,"Mor":6677,"Met":6678,"Mill":6679,"Money":6680,"None":6681,"Nearly":6682,"Niece":6683,"NET":6684,"Ox":6685,"Oak":6686,"Once":6687,"OLINE":6688,"Pen":6689,"Ple":6690,"Phi":6691,"Pain":6692,"Pur":6693,"Prom":6694,"Pul":6695,"Prob":6696,"Presuming":6697,"Ri":6698,"Ren":6699,"Ris":6700,"Ring":6701,"Ref":6702,"Read":6703,"Right":6704,"Respe":6705,"Resign":6706,"Se":6707,"Sp":6708,"Sto":6709,"Sing":6710,"Sar":6711,"Spe":6712,"Sur":6713,"Ste":6714,"Send":6715,"Sally":6716,"Sup":6717,"Sep":6718,"Stone":6719,"Smiles":6720,"South":6721,"Stop":6722,"TZ":6723,"Ti":6724,"Tow":6725,"Teas":6726,"Thus":6727,"Twice":6728,"Van":6729,"Ving":6730,"Wi":6731,"Wr":6732,"Won":6733,"Wat":6734,"Wide":6735,"Wood":6736,"Word":6737,"Wester":6738,"Wretched":6739,"Women":6740,"Yor":6741,"ZY":6742,"ah":6743,"aliz":6744,"aper":6745,"avi":6746,"awo":6747,"aited":6748,"axed":6749,"alighted":6750,"bis":6751,"bas":6752,"bag":6753,"bby":6754,"blo":6755,"bur":6756,"bod":6757,"batt":6758,"bru":6759,"bass":6760,"bated":6761,"bery":6762,"blot":6763,"biting":6764,"boured":6765,"bending":6766,"bounds":6767,"bade":6768,"bial":6769,"bash":6770,"brace":6771,"bount":6772,"bilities":6773,"bborn":6774,"backed":6775,"blasted":6776,"cut":6777,"cro":6778,"cun":6779,"chen":6780,"cake":6781,"cently":6782,"cents":6783,"cali":6784,"cows":6785,"dable":6786,"dure":6787,"dled":6788,"daw":6789,"dles":6790,"daz":6791,"dedu":6792,"dresses":6793,"damp":6794,"eth":6795,"eter":6796,"eous":6797,"ecu":6798,"echo":6799,"fat":6800,"fed":6801,"fro":6802,"fac":6803,"fend":6804,"fers":6805,"ffect":6806,"ffin":6807,"fres":6808,"flam":6809,"frisk":6810,"freck":6811,"foul":6812,"gs":6813,"git":6814,"gle":6815,"gno":6816,"ges":6817,"gif":6818,"gap":6819,"gau":6820,"gally":6821,"groom":6822,"gather":6823,"glove":6824,"gged":6825,"gaz":6826,"gidd":6827,"gaming":6828,"hance":6829,"hunt":6830,"hounds":6831,"ian":6832,"ithe":6833,"ili":6834,"iard":6835,"irest":6836,"iress":6837,"iers":6838,"iber":6839,"iquit":6840,"ivable":6841,"jok":6842,"jest":6843,"juni":6844,"jilt":6845,"joking":6846,"junction":6847,"ker":6848,"kit":6849,"kne":6850,"kinde":6851,"lou":6852,"lof":6853,"lent":6854,"lab":6855,"lun":6856,"lur":6857,"lard":6858,"lend":6859,"lings":6860,"lace":6861,"latest":6862,"lorn":6863,"mate":6864,"mity":6865,"mence":6866,"mits":6867,"mish":6868,"mince":6869,"nut":6870,"nour":6871,"nation":6872,"nur":6873,"nable":6874,"nate":6875,"nast":6876,"nnight":6877,"nitude":6878,"narr":6879,"obe":6880,"oper":6881,"oak":6882,"oton":6883,"ots":6884,"oyed":6885,"oeu":6886,"othly":6887,"pin":6888,"pher":6889,"pid":6890,"plo":6891,"pac":6892,"pant":6893,"pies":6894,"piness":6895,"pave":6896,"pang":6897,"pil":6898,"pace":6899,"pice":6900,"pud":6901,"poured":6902,"pages":6903,"piring":6904,"palli":6905,"packed":6906,"rat":6907,"rut":6908,"rag":6909,"rmu":6910,"rul":6911,"rink":6912,"rings":6913,"rang":6914,"rably":6915,"raged":6916,"runs":6917,"rash":6918,"ramb":6919,"ramid":6920,"racked":6921,"sw":6922,"sar":6923,"sse":6924,"sce":6925,"sag":6926,"sam":6927,"smo":6928,"sation":6929,"slo":6930,"spar":6931,"sple":6932,"sci":6933,"sings":6934,"sang":6935,"sending":6936,"sounds":6937,"sworth":6938,"sash":6939,"snu":6940,"sallied":6941,"sque":6942,"tan":6943,"tar":6944,"tit":6945,"tent":6946,"tro":6947,"tes":6948,"tast":6949,"tled":6950,"tness":6951,"tions":6952,"tack":6953,"tures":6954,"tents":6955,"ttom":6956,"uation":6957,"ucy":6958,"upro":6959,"uction":6960,"uge":6961,"uated":6962,"uished":6963,"uster":6964,"vre":6965,"vor":6966,"vow":6967,"vage":6968,"vinced":6969,"vows":6970,"valid":6971,"ws":6972,"win":6973,"wits":6974,"witty":6975,"warr":6976,"wdering":6977,"waking":6978,"xy":6979,"xibly":6980,"xhounds":6981,"yllable":6982,"yards":6983,"zas":6984,"zes":6985,"zard":6986,"zling":6987,"écl":6988,"’;":6989,"”—":6990,"hein":6991,"heed":6992,"heal":6993,"heir":6994,"hered":6995,"heim":6996,"hearer":6997,"heavi":6998,"heiress":6999,"hemence":7000,"iny":7001,"ines":7002,"inti":7003,"inqu":7004,"inate":7005,"inity":7006,"inings":7007,"invo":7008,"inations":7009,"inished":7010,"inconce":7011,"inference":7012,"inution":7013,"inconsiderable":7014,"insisted":7015,"indistin":7016,"incide":7017,"involuntary":7018,"inhumanity":7019,"inoffensive":7020,"inexhau":7021,"insists":7022,"inmates":7023,"inadequate":7024,"iniquit":7025,"inmate":7026,"aning":7027,"anno":7028,"anse":7029,"anne":7030,"anci":7031,"anish":7032,"anzas":7033,"rein":7034,"rear":7035,"rect":7036,"resi":7037,"reap":7038,"reple":7039,"rent":7040,"resc":7041,"remor":7042,"reced":7043,"repress":7044,"rewish":7045,"repose":7046,"remon":7047,"reappear":7048,"recur":7049,"rejoined":7050,"rebu":7051,"revered":7052,"remarked":7053,"resides":7054,"regained":7055,"retreated":7056,"recre":7057,"resisted":7058,"repressing":7059,"research":7060,"resisting":7061,"revive":7062,"resume":7063,"retort":7064,"reanimated":7065,"release":7066,"replies":7067,"retreating":7068,"theat":7069,"thetic":7070,"ouche":7071,"oudest":7072,"erred":7073,"erness":7074,"eracy":7075,"erulous":7076,"ergence":7077,"thro":7078,"thwar":7079,"enor":7080,"ende":7081,"enable":7082,"enant":7083,"enge":7084,"enated":7085,"ennight":7086,"encing":7087,"enlar":7088,"enforced":7089,"ensions":7090,"encam":7091,"encumb":7092,"encro":7093,"enhance":7094,"enraged":7095,"ensation":7096,"enheim":7097,"atre":7098,"ator":7099,"atable":7100,"atage":7101,"atings":7102,"atived":7103,"ateness":7104,"attic":7105,"atoned":7106,"atuation":7107,"tori":7108,"tofore":7109,"token":7110,"tober":7111,"tody":7112,"ist":7113,"ister":7114,"isance":7115,"istance":7116,"isition":7117,"ishes":7118,"istr":7119,"iseration":7120,"asp":7121,"asper":7122,"asable":7123,"ashed":7124,"ashes":7125,"aspi":7126,"associ":7127,"asms":7128,"ederacy":7129,"ington":7130,"ingrat":7131,"beau":7132,"befriend":7133,"bequest":7134,"bewa":7135,"bets":7136,"bewild":7137,"beque":7138,"beatings":7139,"argo":7140,"aries":7141,"arice":7142,"ariable":7143,"aroused":7144,"arines":7145,"arrear":7146,"itent":7147,"itution":7148,"ituted":7149,"llent":7150,"llings":7151,"lliest":7152,"llenge":7153,"oral":7154,"oration":7155,"orti":7156,"orable":7157,"orant":7158,"orous":7159,"orously":7160,"haun":7161,"hable":7162,"haunt":7163,"hazard":7164,"lection":7165,"leful":7166,"lework":7167,"levell":7168,"legal":7169,"legacy":7170,"legally":7171,"lexibly":7172,"leaning":7173,"nose":7174,"nomin":7175,"nobl":7176,"nods":7177,"hering":7178,"hermit":7179,"stle":7180,"stag":7181,"stone":7182,"stable":7183,"stra":7184,"stage":7185,"stress":7186,"stery":7187,"stained":7188,"sters":7189,"stem":7190,"stig":7191,"stability":7192,"stretched":7193,"stamp":7194,"stnut":7195,"stinate":7196,"stanzas":7197,"sea":7198,"sell":7199,"semin":7200,"severed":7201,"semble":7202,"omit":7203,"omitted":7204,"omically":7205,"celer":7206,"cellent":7207,"ching":7208,"chard":7209,"chim":7210,"chatt":7211,"chick":7212,"chances":7213,"chris":7214,"chbis":7215,"vehemence":7216,"waste":7217,"wasting":7218,"licy":7219,"ligent":7220,"lios":7221,"limits":7222,"ioners":7223,"wick":7224,"wives":7225,"hire":7226,"hired":7227,"hibit":7228,"entiously":7229,"verb":7230,"verily":7231,"verses":7232,"verpool":7233,"verdure":7234,"ldiers":7235,"forwards":7236,"forgave":7237,"forcing":7238,"forbore":7239,"forbade":7240,"forlorn":7241,"deter":7242,"defe":7243,"depre":7244,"deport":7245,"degener":7246,"demean":7247,"defied":7248,"defin":7249,"depra":7250,"device":7251,"devoid":7252,"destru":7253,"decked":7254,"default":7255,"deemed":7256,"degrad":7257,"decam":7258,"notes":7259,"noticing":7260,"nect":7261,"newest":7262,"nesses":7263,"shew":7264,"shelves":7265,"shewed":7266,"mes":7267,"mead":7268,"meane":7269,"mechan":7270,"weake":7271,"weep":7272,"wears":7273,"wearis":7274,"suing":7275,"sumed":7276,"suiting":7277,"suade":7278,"susce":7279,"sustained":7280,"utest":7281,"utenant":7282,"ters":7283,"terri":7284,"termed":7285,"although":7286,"altar":7287,"histori":7288,"withstood":7289,"withdrawing":7290,"ctable":7291,"ctim":7292,"ctility":7293,"ctuating":7294,"ays":7295,"ayed":7296,"ayons":7297,"alled":7298,"allure":7299,"allude":7300,"alluding":7301,"alloyed":7302,"allayed":7303,"irited":7304,"irret":7305,"irrepro":7306,"irreli":7307,"irical":7308,"irregular":7309,"irons":7310,"ading":7311,"adjust":7312,"adles":7313,"advert":7314,"adhered":7315,"adoration":7316,"adhering":7317,"adays":7318,"idy":7319,"ident":7320,"hop":7321,"sore":7322,"soever":7323,"sorely":7324,"soldiers":7325,"conic":7326,"confi":7327,"conni":7328,"constr":7329,"conster":7330,"connu":7331,"congen":7332,"conception":7333,"consoled":7334,"conjunction":7335,"feet":7336,"fewer":7337,"fectly":7338,"felic":7339,"rier":7340,"rily":7341,"rible":7342,"rigu":7343,"rivers":7344,"rimon":7345,"riev":7346,"roast":7347,"roses":7348,"rowest":7349,"rooted":7350,"rocks":7351,"abate":7352,"abound":7353,"abide":7354,"abiding":7355,"agine":7356,"agers":7357,"agitations":7358,"agony":7359,"ource":7360,"ourable":7361,"amper":7362,"amiss":7363,"ammed":7364,"amish":7365,"ampled":7366,"amorous":7367,"motion":7368,"pes":7369,"peep":7370,"pets":7371,"petri":7372,"pelled":7373,"pelling":7374,"peaches":7375,"uned":7376,"unknow":7377,"unble":7378,"unsha":7379,"unsub":7380,"unappe":7381,"undone":7382,"unheard":7383,"unctions":7384,"unasked":7385,"uniting":7386,"unusual":7387,"undetermined":7388,"unities":7389,"unkindness":7390,"unworth":7391,"unquestion":7392,"unattended":7393,"unacquainted":7394,"unfrequently":7395,"unpleasing":7396,"unacknowledged":7397,"undut":7398,"uncompanion":7399,"unmarked":7400,"undecided":7401,"unaware":7402,"unalter":7403,"unnaturally":7404,"unmoved":7405,"unprepared":7406,"ungover":7407,"unprote":7408,"unimportant":7409,"unchanged":7410,"unseldom":7411,"uncertainty":7412,"undeserved":7413,"unreserve":7414,"unprinci":7415,"undeceive":7416,"unpleasantly":7417,"unreasonably":7418,"unintelligible":7419,"unqualified":7420,"unbecoming":7421,"unallied":7422,"unshaken":7423,"unnecessarily":7424,"unpretending":7425,"unweary":7426,"unanswerable":7427,"unfavourably":7428,"unstudied":7429,"unvarying":7430,"uncontro":7431,"unrestrained":7432,"unsocial":7433,"unprofit":7434,"unsuccessfully":7435,"unsuspicious":7436,"unbending":7437,"unalloyed":7438,"posterity":7439,"powdering":7440,"policy":7441,"ainous":7442,"bute":7443,"butler":7444,"butcher":7445,"mystery":7446,"compass":7447,"comers":7448,"composition":7449,"combated":7450,"mud":7451,"musl":7452,"muffin":7453,"murmu":7454,"savour":7455,"sailed":7456,"safed":7457,"saucy":7458,"savage":7459,"loser":7460,"loose":7461,"losing":7462,"local":7463,"lowest":7464,"losses":7465,"lobby":7466,"tiest":7467,"timed":7468,"tivation":7469,"tires":7470,"tithes":7471,"onest":7472,"qued":7473,"quant":7474,"qually":7475,"quisite":7476,"querulous":7477,"lfil":7478,"lfully":7479,"acious":7480,"acrimony":7481,"achable":7482,"acutest":7483,"keener":7484,"extor":7485,"exting":7486,"exult":7487,"exposure":7488,"exigence":7489,"expost":7490,"exchanged":7491,"extort":7492,"execu":7493,"explo":7494,"exhibit":7495,"exquisite":7496,"hating":7497,"hatred":7498,"hatef":7499,"nowhere":7500,"nowadays":7501,"dose":7502,"doleful":7503,"ury":7504,"urable":7505,"ardent":7506,"teous":7507,"terest":7508,"tember":7509,"terested":7510,"teeth":7511,"romised":7512,"romantic":7513,"anyhow":7514,"anywhere":7515,"peron":7516,"peration":7517,"perman":7518,"perusing":7519,"perforce":7520,"permit":7521,"persisting":7522,"permitted":7523,"persists":7524,"persevered":7525,"endance":7526,"endure":7527,"enduring":7528,"endurable":7529,"Theatre":7530,"precl":7531,"preside":7532,"prejud":7533,"precise":7534,"predict":7535,"presuming":7536,"prefaced":7537,"premeditated":7538,"presided":7539,"premeditation":7540,"premises":7541,"prepossessed":7542,"precision":7543,"presumed":7544,"willed":7545,"willfully":7546,"ifold":7547,"outdone":7548,"outrun":7549,"outlived":7550,"redress":7551,"dismay":7552,"dishear":7553,"disgr":7554,"dissol":7555,"dispose":7556,"dishon":7557,"dishes":7558,"disarm":7559,"disclaim":7560,"disposing":7561,"dispen":7562,"disquiet":7563,"displease":7564,"disbelieving":7565,"disclose":7566,"disinclined":7567,"discri":7568,"dislikes":7569,"disservice":7570,"dismission":7571,"distrusted":7572,"dishone":7573,"disclosed":7574,"disobliging":7575,"dishonourable":7576,"dishonest":7577,"discompose":7578,"disagreement":7579,"disagreeably":7580,"discontinuance":7581,"disregarded":7582,"disclaimed":7583,"disliking":7584,"dissip":7585,"dispositions":7586,"dissuaded":7587,"disclosure":7588,"dissemble":7589,"dissuade":7590,"dispelling":7591,"inea":7592,"inel":7593,"inement":7594,"inements":7595,"ineffect":7596,"food":7597,"foots":7598,"foxhounds":7599,"folios":7600,"implied":7601,"impass":7602,"imperfe":7603,"impur":7604,"imitation":7605,"imperfectly":7606,"imposing":7607,"imply":7608,"impolit":7609,"imparted":7610,"impet":7611,"impartiality":7612,"imitated":7613,"impressed":7614,"imitate":7615,"imitations":7616,"immoral":7617,"impenet":7618,"implac":7619,"implies":7620,"iminished":7621,"impelled":7622,"gossi":7623,",”—":7624,"afresh":7625,"parading":7626,"ets":7627,"antagon":7628,"proving":7629,"proport":7630,"process":7631,"proclaim":7632,"propit":7633,"prohib":7634,"propens":7635,"procure":7636,"providing":7637,"progno":7638,"proxy":7639,"proverb":7640,"useness":7641,"mankind":7642,"managed":7643,"manager":7644,"manoeu":7645,"manifold":7646,"uling":7647,"ulation":7648,"ulance":7649,"ultim":7650,"ulties":7651,"thise":7652,"male":7653,"someone":7654,"sient":7655,"sighed":7656,"silliest":7657,"therein":7658,"sish":7659,"fame":7660,"favoured":7661,"fairest":7662,"mien":7663,"mies":7664,"shly":7665,"shine":7666,"shrink":7667,"shrewish":7668,"apt":7669,"appoint":7670,"apace":7671,"appare":7672,"appert":7673,"appointed":7674,"vedale":7675,"pless":7676,"pleaded":7677,"netting":7678,"nettled":7679,"ittance":7680,"austerity":7681,"forego":7682,"foresee":7683,"foresaw":7684,"foretold":7685,"anew":7686,"aneous":7687,"ives":7688,"rape":7689,"raction":7690,"rail":7691,"vies":7692,"vious":7693,"victim":7694,"digress":7695,"diligence":7696,"divert":7697,"dividing":7698,"gered":7699,"getic":7700,"vene":7701,"veness":7702,"venison":7703,"veneration":7704,"plate":7705,"green":7706,"Hear":7707,"upid":7708,"upstart":7709,"mostly":7710,"Itali":7711,"shoulders":7712,"?”—":7713,"aken":7714,"akfast":7715,"tens":7716,"tened":7717,"tenor":7718,"tenant":7719,"elated":7720,"eluded":7721,"elashes":7722,"wiser":7723,"wisher":7724,"wisdom":7725,"illiter":7726,"illiber":7727,"specul":7728,"spections":7729,"hasis":7730,"attained":7731,"attitude":7732,"attacked":7733,"blemish":7734,"obvious":7735,"ciate":7736,"meditations":7737,"cover":7738,"cook":7739,"cogent":7740,"cott":7741,"cohere":7742,"cooking":7743,"coquet":7744,"cooks":7745,"coaxed":7746,"coincide":7747,"covies":7748,"beforehand":7749,"insinu":7750,"inspiring":7751,"prit":7752,"prise":7753,"prided":7754,"proudest":7755,"ints":7756,"intrep":7757,"intrigu":7758,"servil":7759,"urned":7760,"spur":7761,"spired":7762,"spaper":7763,"spasms":7764,"sporti":7765,"spacious":7766,"spurned":7767,"shades":7768,"sentinel":7769,"hedge":7770,"owns":7771,"casual":7772,"castic":7773,"cassin":7774,"oping":7775,"oppress":7776,"fies":7777,"pton":7778,"derang":7779,"derived":7780,"mayoral":7781,"partrid":7782,"pliments":7783,"plication":7784,"pliancy":7785,"ruining":7786,"rushed":7787,"posses":7788,"friendless":7789,"friendlier":7790,"lieutenant":7791,"jectures":7792,"surest":7793,"jumbled":7794,"feelingly":7795,"forty":7796,"fortitude":7797,"scrup":7798,"scorned":7799,"scale":7800,"scorn":7801,"scrut":7802,"scamper":7803,"scrape":7804,"nothings":7805,"nothingness":7806,"thence":7807,"cloud":7808,"clue":7809,"clump":7810,"cluster":7811,"clamorous":7812,"ounding":7813,"achie":7814,"hears":7815,"hearth":7816,"heartening":7817,"lessened":7818,"mblings":7819,"woe":7820,"overcoming":7821,"overtook":7822,"overtaken":7823,"overjoy":7824,"overset":7825,"overthrow":7826,"overbearing":7827,"overthrowing":7828,"overrul":7829,"overtures":7830,"contre":7831,"shield":7832,"shillings":7833,"grin":7834,"grain":7835,"grasp":7836,"additions":7837,"gig":7838,"gious":7839,"gibility":7840,"bottom":7841,"boister":7842,"thoughtful":7843,"earth":7844,"earthly":7845,"tool":7846,"bourne":7847,"cucu":7848,"formation":7849,"morality":7850,"moraliz":7851,"pressingly":7852,"suppositions":7853,"supplication":7854,"newly":7855,"newcomers":7856,"newspaper":7857,"household":7858,"lightness":7859,"lastly":7860,"satirical":7861,"ferer":7862,"suring":7863,"surpass":7864,"surpassing":7865,"surmount":7866,"surmises":7867,"possibilities":7868,"jot":7869,"joints":7870,"portance":7871,"courting":7872,"courtier":7873,"courteous":7874,"particip":7875,"charity":7876,"charged":7877,"begs":7878,"onding":7879,"commiseration":7880,"commonest":7881,"justifying":7882,"justification":7883,"passions":7884,"solent":7885,"solace":7886,"solaced":7887,"subsequ":7888,"subjoin":7889,"subsist":7890,"subjection":7891,"submitted":7892,"subsided":7893,"appease":7894,"appeased":7895,"appeals":7896,"clearer":7897,"cleanse":7898,"sonnet":7899,"tedious":7900,"talks":7901,"talker":7902,"Into":7903,"Intim":7904,"Interested":7905,"Insolent":7906,"senior":7907,"restless":7908,"brittle":7909,"brings":7910,"brains":7911,"angrily":7912,"undervalu":7913,"undervalued":7914,"ocations":7915,"ocrity":7916,"misled":7917,"mished":7918,"mischi":7919,"mistook":7920,"misused":7921,"mistrust":7922,"mischance":7923,"mislead":7924,"misleading":7925,"misrepresentation":7926,"mismanagement":7927,"misleads":7928,"missish":7929,"kinds":7930,"kindred":7931,"kindled":7932,"untouched":7933,"untitled":7934,"untinct":7935,"untamed":7936,"untidy":7937,"dued":7938,"dupe":7939,"duel":7940,"duche":7941,"ducks":7942,"ductility":7943,"duets":7944,"ized":7945,"nible":7946,"nicely":7947,"Change":7948,"Church":7949,"tells":7950,"speaker":7951,"!”—":7952,"Webb":7953,"loveliest":7954,"acquire":7955,"acquisition":7956,"indefinite":7957,"indecorum":7958,"indecision":7959,"relished":7960,"relinqu":7961,"cessation":7962,"expressly":7963,"ilworth":7964,"energetic":7965,"tempor":7966,"sideboard":7967,"counted":7968,"counting":7969,"brow":7970,"broad":7971,"brown":7972,"brooking":7973,"volat":7974,"vogue":7975,"prieties":7976,"prized":7977,"prizes":7978,"cultivation":7979,"culprit":7980,"gentlest":7981,"gentlewoman":7982,"gust":7983,"gulf":7984,"guments":7985,"guiding":7986,"guinea":7987,"unequally":7988,"instability":7989,"instituted":7990,"acquainting":7991,"venting":7992,"venturing":7993,"writes":7994,"mature":7995,"matrimon":7996,"spective":7997,"calls":7998,"effic":7999,"truest":8000,"wantonly":8001,"aunts":8002,"generation":8003,"generations":8004,"generously":8005,"believes":8006,"eyelashes":8007,"gets":8008,"handwriting":8009,"handker":8010,"itual":8011,"reasoning":8012,"reasonableness":8013,"Negle":8014,"epithe":8015,"store":8016,"stole":8017,"stock":8018,"storing":8019,"interfere":8020,"interpose":8021,"intermedi":8022,"intermarriage":8023,"interfer":8024,"interpret":8025,"intervene":8026,"essence":8027,"downs":8028,"fields":8029,"valent":8030,"inured":8031,"osing":8032,"osyllable":8033,"ckled":8034,"dines":8035,"farthing":8036,"mons":8037,"monoton":8038,"monosyllable":8039,"heretofore":8040,"requited":8041,"requisite":8042,"mediable":8043,"mediocrity":8044,"carved":8045,"carpets":8046,"foundations":8047,"mindful":8048,"delighting":8049,"appearances":8050,"considerations":8051,"refute":8052,"refrained":8053,"refuge":8054,"referred":8055,"refinements":8056,"licentious":8057,"answers":8058,"gratification":8059,"finds":8060,"spokes":8061,"stration":8062,"strance":8063,"stratage":8064,"rightful":8065,"compare":8066,"compensation":8067,"compromised":8068,"characterise":8069,"oubling":8070,"Howsoever":8071,"probity":8072,"probabilities":8073,"expects":8074,"conversed":8075,"conversations":8076,"distribut":8077,"distraction":8078,"allowable":8079,"allowances":8080,"doubly":8081,"doubled":8082,"personage":8083,"personages":8084,"silenced":8085,"womanly":8086,"resolute":8087,"concerto":8088,"Fordy":8089,"Forsters":8090,"respective":8091,"respectful":8092,"airs":8093,"airing":8094,"hardened":8095,"trembled":8096,"trembling":8097,"tremble":8098,"trepid":8099,"tremblings":8100,"designing":8101,"nightcap":8102,"lustre":8103,"choosing":8104,"awaited":8105,"fuss":8106,"fugit":8107,"fulfil":8108,"ficed":8109,"ficial":8110,"mination":8111,"invitations":8112,"invalid":8113,"invariable":8114,"meantime":8115,"meanness":8116,"objected":8117,"autiously":8118,"comforted":8119,"comfortless":8120,"Peak":8121,"purse":8122,"purses":8123,"lifetime":8124,"shortness":8125,"bandbox":8126,"equalled":8127,"hesitating":8128,"regarding":8129,"patient":8130,"repinings":8131,"lets":8132,"stays":8133,"inches":8134,"incautiously":8135,"retain":8136,"retail":8137,"retali":8138,"retailing":8139,"retains":8140,"fortunes":8141,"latively":8142,"Too":8143,"corner":8144,"corrup":8145,"cordingly":8146,"paining":8147,"painter":8148,"trait":8149,"tractable":8150,"spirited":8151,"circuit":8152,"arriving":8153,"circumspect":8154,"busy":8155,"ferred":8156,"sequel":8157,"suffers":8158,"sufferer":8159,"brevity":8160,"breathing":8161,"breathed":8162,"denying":8163,"denomin":8164,"admitting":8165,"admission":8166,"admittance":8167,"backward":8168,"backwards":8169,"beauteous":8170,"scarce":8171,"scarcity":8172,"repel":8173,"repelled":8174,"highflo":8175,"nearness":8176,"heartfelt":8177,"doubtingly":8178,"sterics":8179,"consequent":8180,"consequential":8181,"Dove":8182,"Dovedale":8183,"curtain":8184,"doorway":8185,"closer":8186,"closet":8187,"pathetic":8188,"pathise":8189,"disapprove":8190,"actuated":8191,"cheon":8192,"cheat":8193,"cheap":8194,"cheating":8195,"chestnut":8196,"fastened":8197,"rencontre":8198,"confederacy":8199,"confinement":8200,"fearless":8201,"complained":8202,"complaining":8203,"joyfully":8204,"grapes":8205,"pedantic":8206,"shoe":8207,"shoes":8208,"shops":8209,"shooting":8210,"heads":8211,"headed":8212,"headquarters":8213,"include":8214,"inclinations":8215,"compliance":8216,"plays":8217,"played":8218,"blish":8219,"black":8220,"blamed":8221,"blacken":8222,"waived":8223,"wavering":8224,"metry":8225,"prevents":8226,"importing":8227,"importune":8228,"importuned":8229,"childhood":8230,"capacity":8231,"emergence":8232,"piquet":8233,"pigs":8234,"piqued":8235,"train":8236,"trout":8237,"troubling":8238,"angelic":8239,"minutest":8240,"minuteness":8241,"Affect":8242,"gladly":8243,"merce":8244,"merits":8245,"informs":8246,"informality":8247,"monthly":8248,"strongest":8249,"conditions":8250,"thankfully":8251,"thankfulness":8252,"latterly":8253,"final":8254,"finances":8255,"hurts":8256,"smirk":8257,"tries":8258,"trials":8259,"tricks":8260,"tribute":8261,"societies":8262,"acknowledging":8263,"disappointments":8264,"Hursts":8265,"fourthly":8266,"lowness":8267,"realised":8268,"realities":8269,"consequences":8270,"creditably":8271,"hysterics":8272,"assumed":8273,"forwarder":8274,"forwarding":8275,"aimed":8276,"vices":8277,"attachments":8278,"equals":8279,"masterly":8280,"horrible":8281,"lingering":8282,"seconded":8283,"seconding":8284,"prudently":8285,"prudential":8286,"opportunities":8287,"neighbourhoods":8288,"complimenting":8289,"differ":8290,"eleven":8291,"elevation":8292,"slightingly":8293,"resentments":8294,"recommenced":8295,"severity":8296,"worthlessness":8297,"exceeding":8298,"luckless":8299,"luckiest":8300,"drawings":8301,"learning":8302,"satisfactions":8303,"increases":8304,"Letters":8305,"Think":8306,"Things":8307,"Three":8308,"Through":8309,"intimation":8310,"enemy":8311,"enemies":8312,"needlework":8313,"extractions":8314,"improprieties":8315,"signs":8316,"profuse":8317,"profusion":8318,"reflecting":8319,"successor":8320,"succession":8321,"successively":8322,"adept":8323,"singling":8324,"watering":8325,"watches":8326,"enjoyments":8327,"welcoming":8328,"colds":8329,"colder":8330,"scheming":8331,"breakfasted":8332,"dreading":8333,"vanish":8334,"indolent":8335,"livings":8336,"suddenness":8337,"completion":8338,"occurs":8339,"tempers":8340,"guardian":8341,"effectual":8342,"prettyish":8343,"avoided":8344,"avoidance":8345,"bitterest":8346,"hug":8347,"hushed":8348,"humbling":8349,"sends":8350,"degrees":8351,"suspend":8352,"concluding":8353,"percepti":8354,"spiteful":8355,"remainder":8356,"emphasis":8357,"largest":8358,"curiosities":8359,"riding":8360,"stepped":8361,"stepping":8362,"congratulation":8363,"congratulatory":8364,"discovering":8365,"conceals":8366,"concealing":8367,"comprehends":8368,"embargo":8369,"rapacity":8370,"infatuation":8371,"inflexibly":8372,"stateliness":8373,"proceedings":8374,"violated":8375,"proudly":8376,"excellency":8377,"troublesome":8378,"grieving":8379,"journeys":8380,"Persuaded":8381,"Perfectly":8382,"azing":8383,"borough":8384,"layne":8385,"missing":8386,"pull":8387,"puff":8388,"publish":8389,"healthy":8390,"healthful":8391,"healthfulness":8392,"forgets":8393,"forgetfulness":8394,"possessing":8395,"employing":8396,"challenge":8397,"chaperon":8398,"chagrin":8399,"drooping":8400,"dangerous":8401,"penance":8402,"penitent":8403,"ordination":8404,"separately":8405,"separating":8406,"separates":8407,"negligence":8408,"negatived":8409,"negligent":8410,"alarms":8411,"ablution":8412,"quieter":8413,"communications":8414,"communicative":8415,"communicati":8416,"fullest":8417,"sufficiency":8418,"graces":8419,"graceful":8420,"gracefully":8421,"regretted":8422,"falsely":8423,"buying":8424,"bustle":8425,"whispered":8426,"residing":8427,"resource":8428,"resounding":8429,"reports":8430,"reporting":8431,"roads":8432,"testifying":8433,"perturbed":8434,"sixth":8435,"sixpence":8436,"mortifications":8437,"mortifies":8438,"instruct":8439,"instructed":8440,"instructing":8441,"satisfying":8442,"professing":8443,"superiority":8444,"bowl":8445,"bowing":8446,"creative":8447,"glen":8448,"glory":8449,"glazing":8450,"lawfully":8451,"risy":8452,"risen":8453,"rises":8454,"sicians":8455,"reproaches":8456,"strious":8457,"strictly":8458,"striously":8459,"constancy":8460,"constitute":8461,"constitution":8462,"amazes":8463,"sighted":8464,"plainer":8465,"blameable":8466,"blameless":8467,"blamelessness":8468,"calf":8469,"hinted":8470,"landing":8471,"punch":8472,"wittic":8473,"liberties":8474,"deciding":8475,"productive":8476,"requester":8477,"recommendations":8478,"Proud":8479,"poned":8480,"payment":8481,"synon":8482,"seded":8483,"sedate":8484,"seduction":8485,"sedateness":8486,"ordained":8487,"despair":8488,"despises":8489,"desponding":8490,"consenting":8491,"authorise":8492,"authorising":8493,"authorized":8494,"eyeing":8495,"periods":8496,"pictured":8497,"influenced":8498,"influencing":8499,"Which":8500,"Whilst":8501,"availed":8502,"avail":8503,"avarice":8504,"censuring":8505,"centric":8506,"eloped":8507,"eloping":8508,"furnished":8509,"laity":8510,"laconic":8511,"simply":8512,"simpered":8513,"simpers":8514,"transport":8515,"transient":8516,"transpired":8517,"orderly":8518,"vexing":8519,"vexations":8520,"imperturb":8521,"affords":8522,"facts":8523,"indulgent":8524,"indulging":8525,"apprehensive":8526,"sharers":8527,"conscientious":8528,"conscientiously":8529,"succeeds":8530,"triumphing":8531,"avenue":8532,"benches":8533,"bedrooms":8534,"ouncing":8535,"leisurely":8536,"changes":8537,"weakened":8538,"weaknesses":8539,"alterations":8540,"alternate":8541,"consolatory":8542,"petulance":8543,"exerting":8544,"affable":8545,"pronouncing":8546,"boasting":8547,"comparisons":8548,"parental":8549,"graciously":8550,"graciousness":8551,".’—":8552,".’”":8553,"Bell":8554,"Office":8555,"alienated":8556,"bric":8557,"bribe":8558,"bribery":8559,"laurel":8560,"laudable":8561,"thirteen":8562,"wilderness":8563,"defended":8564,"defense":8565,"advances":8566,"contemptuously":8567,"richly":8568,"undiminished":8569,"musical":8570,"safest":8571,"safety":8572,"applies":8573,"shameless":8574,"sentences":8575,"firmly":8576,"firmness":8577,"asserted":8578,"asserting":8579,"elderly":8580,"clearing":8581,"closely":8582,"improvements":8583,"watchful":8584,"benefits":8585,"benefiting":8586,"caused":8587,"capers":8588,"hasten":8589,"ilty":8590,"wretchedly":8591,"heighten":8592,"noblest":8593,"desperation":8594,"solicit":8595,"solicitation":8596,"ambition":8597,"performs":8598,"performers":8599,"industriously":8600,"groundwork":8601,"unexampled":8602,"naturedly":8603,"cupied":8604,"differences":8605,"fifth":8606,"variance":8607,"varieties":8608,"ankle":8609,"regain":8610,"argued":8611,"arguing":8612,"starve":8613,"starting":8614,"lipsed":8615,"utterly":8616,"postili":8617,"postponed":8618,"accusing":8619,"pretence":8620,"prettiest":8621,"attendant":8622,"attendants":8623,"clerk":8624,"clerical":8625,"strangely":8626,"pursuits":8627,"travelled":8628,"trifled":8629,"explanatory":8630,".—‘":8631,"Wholly":8632,"pitched":8633,"rites":8634,"springs":8635,"sprang":8636,"sprained":8637,"taller":8638,"tallest":8639,"annual":8640,"reminding":8641,"archness":8642,"arrangements":8643,"stumbling":8644,"stuff":8645,"stubborn":8646,"steadiness":8647,"youths":8648,"defective":8649,"advising":8650,"impute":8651,"impunity":8652,"parishioners":8653,"military":8654,"speediest":8655,"attributing":8656,"services":8657,"serviceable":8658,"commendable":8659,"commendations":8660,"valueless":8661,"settlements":8662,"obligingly":8663,"secrets":8664,"ridiculing":8665,"streets":8666,"calmly":8667,"regulation":8668,"regulate":8669,"regulated":8670,"peculiarity":8671,"peculiarities":8672,"Pope":8673,"Stay":8674,"Stupid":8675,"eccentric":8676,"eclipsed":8677,"animal":8678,"animating":8679,"stics":8680,"severest":8681,"entailing":8682,"destitute":8683,"conciliating":8684,"sacrificed":8685,"preparation":8686,"impressing":8687,"impressive":8688,"maiden":8689,"failure":8690,"faultless":8691,"frighten":8692,"frighted":8693,"figures":8694,"couples":8695,"commissioned":8696,"commissioning":8697,"occupation":8698,"occupies":8699,"miserly":8700,"miseries":8701,"miserably":8702,"persuasions":8703,"confidently":8704,"confidential":8705,"complaint":8706,"blinds":8707,"declares":8708,"practised":8709,"practising":8710,"diffuse":8711,"diffused":8712,"diffident":8713,"diffuseness":8714,"deservedly":8715,"inducements":8716,"correspondents":8717,"originate":8718,"eligibility":8719,"flowed":8720,"flowing":8721,"gamester":8722,"growth":8723,"phic":8724,"slept":8725,"vacancy":8726,"warned":8727,"inns":8728,"resignation":8729,"stupider":8730,"superintended":8731,"superlatively":8732,"superseded":8733,"consists":8734,"confirms":8735,"lodge":8736,"selfishness":8737,"oddly":8738,"oddity":8739,"oddities":8740,"discourses":8741,"folded":8742,"estimated":8743,"coats":8744,"gradual":8745,"supplying":8746,"refusals":8747,"circles":8748,"imaginations":8749,"counterpart":8750,"counteract":8751,"counterbal":8752,"assistant":8753,"quarrelsome":8754,"witnessing":8755,"bestowing":8756,"drinking":8757,"fashionable":8758,"lamented":8759,"lamenting":8760,"domestics":8761,"spreading":8762,"absurdity":8763,"?—”":8764,"Absence":8765,"Hope":8766,"Imprudent":8767,"Imprudence":8768,"Implac":8769,"Imagine":8770,"Importance":8771,"creet":8772,"cambric":8773,"languor":8774,"languages":8775,"salad":8776,"stible":8777,"stiles":8778,"forbearing":8779,"deliberated":8780,"weighty":8781,"suspects":8782,"convert":8783,"conversible":8784,"converting":8785,"abhorrent":8786,"unfolding":8787,"qualification":8788,"qualifications":8789,"exclusion":8790,"exclude":8791,"perverse":8792,"pretense":8793,"pretension":8794,"provocations":8795,"villainous":8796,"fireplace":8797,"contains":8798,"grandfather":8799,"engrossing":8800,"pointedly":8801,"instantaneous":8802,"uselessly":8803,"papers":8804,"shopping":8805,"struggle":8806,"struggling":8807,"universities":8808,"studier":8809,"studious":8810,"philosopher":8811,"philosophic":8812,"Console":8813,"Consoled":8814,"Convinced":8815,"Conjectures":8816,"Except":8817,"Excellent":8818,"Engaged":8819,"INS":8820,"Really":8821,"Regard":8822,"Removed":8823,"Recovering":8824,"Unhappy":8825,"Unfeeling":8826,"Unwilling":8827,"Unfortunately":8828,"Wherever":8829,"cherish":8830,"darting":8831,"darling":8832,"economically":8833,"emotions":8834,"lanes":8835,"mutually":8836,"paler":8837,"paling":8838,"palings":8839,"palatable":8840,"physicians":8841,"songs":8842,"scope":8843,"scores":8844,"wander":8845,"injuring":8846,"injunction":8847,"injunctions":8848,"injury":8849,"restoring":8850,"reconcile":8851,"reconciling":8852,"enumeration":8853,"belonging":8854,"artificial":8855,"novels":8856,"detailed":8857,"detaching":8858,"detail":8859,"deaden":8860,"detect":8861,"detested":8862,"escaping":8863,"discerning":8864,"discernible":8865,"proportioned":8866,"proportionate":8867,"ushing":8868,"dictate":8869,"dictated":8870,"dictating":8871,"dictates":8872,"dictator":8873,"copied":8874,"coppice":8875,"substitute":8876,"dullest":8877,"dullness":8878,"nicest":8879,"guests":8880,"complaisant":8881,"declaring":8882,"conditional":8883,"designedly":8884,"horsewoman":8885,"interruptions":8886,"deceives":8887,"syllables":8888,"disgusting":8889,"anticipation":8890,"anticipate":8891,"accusation":8892,"tranquilly":8893,"principles":8894,"barouche":8895,"barely":8896,"barefaced":8897,"brightened":8898,"brightening":8899,"evade":8900,"evously":8901,"fluttered":8902,"frankly":8903,"harp":8904,"harmony":8905,"hardest":8906,"harboured":8907,"harshly":8908,"mingled":8909,"mingham":8910,"mingling":8911,"narrowest":8912,"named":8913,"naming":8914,"slit":8915,"slacken":8916,"insolence":8917,"relied":8918,"envying":8919,"environs":8920,"artful":8921,"artfully":8922,"forbidding":8923,"devote":8924,"devoting":8925,"decorums":8926,"messages":8927,"conveying":8928,"extenuating":8929,"expedite":8930,"executed":8931,"persevering":8932,"perseveringly":8933,"preceded":8934,"imputing":8935,"sized":8936,"shrug":8937,"costing":8938,"intruder":8939,"lessening":8940,"strangeness":8941,"promoted":8942,"traces":8943,"curtailed":8944,"blushing":8945,"captivation":8946,"finishing":8947,"arranges":8948,"calculation":8949,"calculate":8950,"uniformity":8951,"petitioned":8952,"deserted":8953,"desertion":8954,"cautiousness":8955,"regularly":8956,"sleeping":8957,"consistency":8958,"demands":8959,"demanding":8960,"catching":8961,"splendour":8962,"Books":8963,"Complied":8964,"Compared":8965,"Compliments":8966,"Commerce":8967,"Under":8968,"boundless":8969,"crayons":8970,"cradles":8971,"crammed":8972,"crushing":8973,"candid":8974,"coughs":8975,"coughing":8976,"crowd":8977,"fingering":8978,"grosse":8979,"glowing":8980,"mounting":8981,"scolded":8982,"tongues":8983,"yawned":8984,"yawning":8985,"innocence":8986,"innocently":8987,"inherit":8988,"inherited":8989,"insignificant":8990,"rectory":8991,"rendering":8992,"revival":8993,"errand":8994,"ensue":8995,"ensuing":8996,"topic":8997,"topics":8998,"assents":8999,"habitual":9000,"selecting":9001,"seize":9002,"seizing":9003,"searching":9004,"seasonable":9005,"deprive":9006,"detestable":9007,"sheets":9008,"irritated":9009,"adopted":9010,"fetched":9011,"abundant":9012,"unassailed":9013,"ungraciousness":9014,"multitude":9015,"perpetual":9016,"disinterestedness":9017,"inevitably":9018,"faithfully":9019,"mildly":9020,"diversified":9021,"inspire":9022,"inspires":9023,"Younger":9024,"overspreading":9025,"northward":9026,"northwards":9027,"observances":9028,"circulated":9029,"circulating":9030,"officiousness":9031,"elevate":9032,"elevating":9033,"needlessly":9034,"infliction":9035,"inflicted":9036,"contrasted":9037,"contradicted":9038,"contradictions":9039,"strikingly":9040,"bridegroom":9041,"advancement":9042,"impulses":9043,"impudent":9044,"benevolent":9045,"ceremonies":9046,"suggesting":9047,"suggestion":9048,"sportsmen":9049,"campful":9050,"flutterings":9051,"hackneyed":9052,"curtseyed":9053,"captivate":9054,"captivated":9055,"vouchsafed":9056,"prodigious":9057,"Against":9058,"Goulding":9059,"Generous":9060,"Happiness":9061,"LLINS":9062,"Others":9063,"Sermons":9064,"Scarborough":9065,"custody":9066,"critical":9067,"duped":9068,"filled":9069,"filling":9070,"fruit":9071,"gayer":9072,"godfather":9073,"pyramid":9074,"swelled":9075,"swelling":9076,"treasured":9077,"uglier":9078,"vicious":9079,"victory":9080,"vicinity":9081,"vastly":9082,"whimsical":9083,"winding":9084,"windings":9085,"incessant":9086,"inventing":9087,"invention":9088,"reverse":9089,"reverting":9090,"reverie":9091,"revenging":9092,"reckon":9093,"reckoned":9094,"enabling":9095,"ascertaining":9096,"ornament":9097,"stirs":9098,"stirring":9099,"stroll":9100,"stoutly":9101,"ceaseless":9102,"wickedest":9103,"entreating":9104,"decisions":9105,"ctives":9106,"conquered":9107,"condolence":9108,"construed":9109,"construing":9110,"construction":9111,"amounting":9112,"pools":9113,"comprise":9114,"accede":9115,"acceded":9116,"acceding":9117,"explicitly":9118,"exhibiting":9119,"dispirited":9120,"disrespectful":9121,"discreditable":9122,"discontentedness":9123,"indicated":9124,"individually":9125,"audible":9126,"canvas":9127,"anecdotes":9128,"uppermost":9129,"pleasantest":9130,"coarse":9131,"fighting":9132,"derives":9133,"jumps":9134,"jumped":9135,"jumping":9136,"screens":9137,"contributed":9138,"grouped":9139,"boxes":9140,"boldly":9141,"housemaids":9142,"surrounded":9143,"portrait":9144,"acquiesce":9145,"indelicate":9146,"reluctance":9147,"volubility":9148,"farmhouse":9149,"disturbance":9150,"disturbers":9151,"distractedly":9152,"equipage":9153,"equivoc":9154,"equivalent":9155,"repented":9156,"repentance":9157,"tortured":9158,"hypocrisy":9159,"comprehension":9160,"griefs":9161,"grievously":9162,"borrowed":9163,"puzzled":9164,"pensably":9165,"eloquence":9166,"condescends":9167,"condescendingly":9168,"affliction":9169,"afflicted":9170,"afflicting":9171,"rapturously":9172,"injuries":9173,"fidgets":9174,"fidgety":9175,"vulgarity":9176,"revealing":9177,"stiffly":9178,"stretching":9179,"Accept":9180,"Accordingly":9181,"Almost":9182,"Already":9183,"Archbis":9184,"Arguments":9185,"Blame":9186,"Blenheim":9187,"Britain":9188,"British":9189,"Just":9190,"July":9191,"Observing":9192,"Obstinate":9193,"October":9194,"Occupied":9195,"Putting":9196,"Surely":9197,"Whether":9198,"Whenever":9199,"Warwick":9200,"balm":9201,"bills":9202,"billiard":9203,"burnt":9204,"burning":9205,"blowsy":9206,"crowned":9207,"diminution":9208,"dimensions":9209,"eminent":9210,"eminence":9211,"flogged":9212,"frame":9213,"frailty":9214,"fluently":9215,"fluctuating":9216,"hanging":9217,"magnitude":9218,"magistr":9219,"porridge":9220,"pouring":9221,"ptibility":9222,"sofas":9223,"softness":9224,"sneer":9225,"sneering":9226,"vocably":9227,"wavered":9228,"ymously":9229,"heavens":9230,"investig":9231,"invectives":9232,"indiscreet":9233,"indispensably":9234,"inexpressible":9235,"inexpressibly":9236,"insufferable":9237,"insufferably":9238,"insulted":9239,"insulting":9240,"insipid":9241,"insipidity":9242,"revolving":9243,"revolution":9244,"threats":9245,"threatened":9246,"ensigncy":9247,"bewitched":9248,"bewitching":9249,"seclusion":9250,"secluded":9251,"china":9252,"chanced":9253,"forfeit":9254,"forfeited":9255,"delivering":9256,"delicious":9257,"wearied":9258,"alleviate":9259,"alleviated":9260,"irremediable":9261,"irrevocably":9262,"hotel":9263,"hotels":9264,"soothed":9265,"consigned":9266,"feathers":9267,"rivals":9268,"agonies":9269,"unabated":9270,"unabashed":9271,"unavoidable":9272,"unavoidably":9273,"pollution":9274,"polluted":9275,"popularity":9276,"accurate":9277,"accuracy":9278,"exhausted":9279,"exaggeration":9280,"exaggerate":9281,"expences":9282,"exuberance":9283,"exuberant":9284,"predominance":9285,"predominate":9286,"disputes":9287,"disputable":9288,"footman":9289,"implicitness":9290,"projected":9291,"mixing":9292,"shorter":9293,"shorten":9294,"apprehended":9295,"apprehending":9296,"augmented":9297,"vigour":9298,"vigorously":9299,"plenty":9300,"plentiful":9301,"plantation":9302,"upbraided":9303,"upbraiding":9304,"illustration":9305,"illustrious":9306,"coincidence":9307,"coincided":9308,"jewels":9309,"turnpike":9310,"turnpikes":9311,"heartedness":9312,"assiduously":9313,"assiduous":9314,"overhearings":9315,"overpowering":9316,"overflows":9317,"overflowing":9318,"controverted":9319,"shifting":9320,"bosoms":9321,"survey":9322,"surveying":9323,"survived":9324,"survivor":9325,"henceforth":9326,"recognized":9327,"recognizing":9328,"hardships":9329,"repulsed":9330,"repulsive":9331,"repugnance":9332,"repugnant":9333,"incurred":9334,"retrospections":9335,"retrospective":9336,"corroboration":9337,"corroborated":9338,"paintings":9339,"prompted":9340,"fervently":9341,"tormenting":9342,"empty":9343,"emptiness":9344,"transition":9345,"transferred":9346,"trunks":9347,"trimming":9348,"Thoughtless":9349,"Thoughtlessness":9350,"intimidate":9351,"intimidated":9352,"profligate":9353,"profligacy":9354,"proficient":9355,"proficiency":9356,"exceptional":9357,"quarreled":9358,"quarrelling":9359,"emphatic":9360,"emphatically":9361,"Anxious":9362,"Anxiety":9363,"Anything":9364,"contrariety":9365,"contrariwise":9366,"glories":9367,"gloried":9368,"strictest":9369,"strictures":9370,"sympathise":9371,"symmetry":9372,"despicable":9373,"despicably":9374,"picturesque":9375,"undertaking":9376,"undertaken":9377,"beneficence":9378,"beneficial":9379,"conciliate":9380,"conciliatory":9381,"sleeves":9382,"sleepless":9383,"superintends":9384,"superintendence":9385,"superciliousness":9386,"Exceedingly":9387,"barbarous":9388,"barbarously":9389,"faintly":9390,"maintaining":9391,"criticise":9392,"criticisms":9393,"Amongst":9394,"DEARES":9395,"ostentation":9396,"ostentatious":9397,"taciturn":9398,"revolted":9399,"arrogance":9400,"arrogant":9401,"outstripped":9402,"obsequiousness":9403,"15th":9404,"18th":9405,"26th":9406,"August":9407,"Assistance":9408,"Amazed":9409,"Ashworth":9410,"Attendance":9411,"April":9412,"Astonishment":9413,"Breakfast":9414,"Balls":9415,"Birmingham":9416,"Bromley":9417,"Bakewell":9418,"Beyond":9419,"BINGL":9420,"BENNET":9421,"Boulanger":9422,"COLLINS":9423,"Courier":9424,"Clement":9425,"Calling":9426,"Choose":9427,"Cambridge":9428,"Chatsworth":9429,"Conceal":9430,"Clarke":9431,"CAROLINE":9432,"Chamberlayne":9433,"Daughters":9434,"Depend":9435,"Dawson":9436,"DARCY":9437,"Edward":9438,"Esq":9439,"Eastbourne":9440,"FITZ":9441,"FRIEN":9442,"Febru":9443,"Fixed":9444,"Follies":9445,"Family":9446,"French":9447,"Friday":9448,"Fatigued":9449,"Girls":9450,"Grantley":9451,"Human":9452,"Honourable":9453,"Hatfield":9454,"Haye":9455,"Harrington":9456,"Irish":9457,"Ignorant":9458,"Keep":9459,"Kenilworth":9460,"Kympton":9461,"LYDIA":9462,"Liverpool":9463,"Look":9464,"LIZZY":9465,"Merely":9466,"Must":9467,"Morris":9468,"Metcalf":9469,"Miller":9470,"Oxford":9471,"Oakham":9472,"Pleased":9473,"Philips":9474,"Painful":9475,"Pursuing":9476,"Promise":9477,"Pulvis":9478,"Probably":9479,"Richard":9480,"Rendered":9481,"Risk":9482,"Reflection":9483,"Respect":9484,"Resignation":9485,"Sept":9486,"Spanish":9487,"Stoke":9488,"Single":9489,"Sarah":9490,"Speak":9491,"Surprise":9492,"Steady":9493,"Supposing":9494,"September":9495,"Times":9496,"Towards":9497,"Teasing":9498,"Vanity":9499,"Vingt":9500,"Wilfully":9501,"Write":9502,"Watson":9503,"Widely":9504,"Woods":9505,"Words":9506,"Westerham":9507,"York":9508,"awoke":9509,"basis":9510,"bags":9511,"blown":9512,"burying":9513,"bodies":9514,"battled":9515,"blots":9516,"bashful":9517,"bracelets":9518,"bounty":9519,"cutting":9520,"cunning":9521,"calico":9522,"dawdled":9523,"dazzling":9524,"deduced":9525,"frost":9526,"faculties":9527,"fender":9528,"fresher":9529,"flaming":9530,"frisks":9531,"freckled":9532,"gift":9533,"gaped":9534,"gaudy":9535,"gathering":9536,"gaze":9537,"giddiness":9538,"hunting":9539,"jokes":9540,"jestingly":9541,"junior":9542,"kitchen":9543,"knees":9544,"kindest":9545,"louder":9546,"lofty":9547,"labour":9548,"luncheon":9549,"lurking":9550,"larder":9551,"nourishes":9552,"nursing":9553,"nasty":9554,"narrative":9555,"obeisance":9556,"operated":9557,"oaks":9558,"packing":9559,"panting":9560,"pavement":9561,"piling":9562,"puddles":9563,"palliation":9564,"ragout":9565,"rashness":9566,"rambled":9567,"swallowed":9568,"sarcastic":9569,"sagacity":9570,"sameness":9571,"smoothly":9572,"sloping":9573,"spars":9574,"spleen":9575,"science":9576,"snug":9577,"squeamish":9578,"tanned":9579,"title":9580,"troop":9581,"tastes":9582,"tackle":9583,"uproar":9584,"warrant":9585,"éclat":9586,"heinous":9587,"heedless":9588,"heirs":9589,"hearers":9590,"heavier":9591,"intimates":9592,"involves":9593,"inconceivable":9594,"inferences":9595,"indistinctly":9596,"inexhaustible":9597,"iniquitous":9598,"annoyed":9599,"annexed":9600,"ancient":9601,"rectitude":9602,"resigning":9603,"replete":9604,"rescue":9605,"remorse":9606,"recede":9607,"remonstrance":9608,"recurring":9609,"rebuke":9610,"recreation":9611,"theatres":9612,"throat":9613,"thwarted":9614,"enormity":9615,"endeared":9616,"enlarging":9617,"encamped":9618,"encumbrance":9619,"encroaching":9620,"attics":9621,"asperity":9622,"aspire":9623,"associating":9624,"ingratitude":9625,"beaux":9626,"befriended":9627,"bewailed":9628,"bewildered":9629,"bequeathed":9630,"haunch":9631,"hazarded":9632,"levelled":9633,"nominally":9634,"nobler":9635,"hermitage":9636,"staggered":9637,"stables":9638,"straws":9639,"seminaries":9640,"celerity":9641,"chimney":9642,"chatty":9643,"chicken":9644,"christening":9645,"defection":9646,"depreciate":9647,"deportment":9648,"degenerate":9649,"definition":9650,"depravity":9651,"destructive":9652,"degradation":9653,"decamping":9654,"nectarines":9655,"meadows":9656,"meanest":9657,"mechanically":9658,"weakest":9659,"wearisome":9660,"susceptibility":9661,"terrific":9662,"histories":9663,"allurements":9664,"irretriev":9665,"irreproachable":9666,"irreligious":9667,"irregularity":9668,"adjusting":9669,"advertised":9670,"confide":9671,"connivance":9672,"constrained":9673,"consternation":9674,"connubial":9675,"congenial":9676,"felicitations":9677,"roasted":9678,"abatement":9679,"petrified":9680,"unknowingly":9681,"unblemished":9682,"unshackled":9683,"unsubdued":9684,"unappeasable":9685,"unworthily":9686,"unquestionably":9687,"undutiful":9688,"uncompanionable":9689,"unalterable":9690,"ungovernable":9691,"unprotected":9692,"unprincipled":9693,"unwearying":9694,"uncontrolled":9695,"unprofitable":9696,"muslins":9697,"murmurs":9698,"savours":9699,"quantity":9700,"extorted":9701,"extinguished":9702,"exultation":9703,"expostulation":9704,"executors":9705,"explore":9706,"hatefully":9707,"permanent":9708,"precluding":9709,"prejudiced":9710,"precisely":9711,"disheartened":9712,"disgraced":9713,"dissolved":9714,"dishonorable":9715,"dispense":9716,"discrimination":9717,"dishonesty":9718,"dissipation":9719,"ineffectual":9720,"footstool":9721,"impassable":9722,"imperfection":9723,"impurities":9724,"impolitic":9725,"impetuous":9726,"impenetrably":9727,"implacability":9728,"gossiping":9729,"antagonist":9730,"proportions":9731,"propitious":9732,"prohibited":9733,"propensities":9734,"prognostics":9735,"manoeuvre":9736,"ultimately":9737,"appointment":9738,"apparel":9739,"appertain":9740,"digressions":9741,"Italian":9742,"illiterate":9743,"illiberal":9744,"speculation":9745,"cottagers":9746,"coherent":9747,"coquetry":9748,"insinuating":9749,"intrepidity":9750,"intrigues":9751,"servility":9752,"sportive":9753,"cassino":9754,"oppressively":9755,"deranged":9756,"mayoralty":9757,"partridges":9758,"possesses":9759,"scrupulous":9760,"scrutiny":9761,"scampering":9762,"clouded":9763,"achieving":9764,"overjoyed":9765,"overruled":9766,"boisterously":9767,"cucumber":9768,"moralize":9769,"participation":9770,"subsequent":9771,"Intimate":9772,"seniority":9773,"undervaluing":9774,"mischievously":9775,"untinctured":9776,"duchess":9777,"Webbs":9778,"relinquish":9779,"temporary":9780,"volatility":9781,"matrimonial":9782,"efficacy":9783,"handkerchief":9784,"Neglect":9785,"epithet":9786,"stockings":9787,"intermediate":9788,"interfering":9789,"interpretation":9790,"monotonous":9791,"licentiousness":9792,"spokesman":9793,"stratagems":9794,"distribute":9795,"Fordyce":9796,"trepidation":9797,"fugitives":9798,"retaliate":9799,"corruption":9800,"denominated":9801,"highflown":9802,"curtains":9803,"chestnuts":9804,"Affectation":9805,"smirks":9806,"perceptible":9807,"puffed":9808,"communicativeness":9809,"witticisms":9810,"synonymously":9811,"imperturbably":9812,"postilions":9813,"stuffy":9814,"stubbornness":9815,"counterbalance":9816,"Implacable":9817,"dictatorial":9818,"grossest":9819,"pyramids":9820,"equivocal":9821,"Archbishop":9822,"magistrate":9823,"investigation":9824,"DEAREST":9825,"BINGLEY":9826,"FITZWILLIAM":9827,"FRIEND":9828,"February":9829,"Harringtons":9830,"irretrievable":9831},"merges":["h e","i n","a n","r e","t he","o u","o n","e r","t h","e n","a t","t o","i s","a s","e d","o f","in g","an d","b e","a r","i t","l l","o r","h a","l e","n o","he r","s t","s e","o m","c e","l y","c h","v e","w as","l i","i on","y ou","w i","h i","en t","v er","l d","f or","d e","no t","th at","n e","g h","s he","m e","w e","s u","u t","t er","a l","h is","ou ld","the r","wi th","c t","a y","a ll","i r","s s","ha d","M r","a d","i d","h o","s o","c on","f e","r i",". ”","hi m","r o","a b","a g","ou r","ha ve","a m","m o","p e","u n","gh t","ver y","p o","a in","b ut","e s","m y","c om","at ion","li z","E liz","Eliz a","m u","b y","s a","l o","t i","be th","Eliza beth","on e","q u","l f","a re","a c","k e","w hi","e x","we re","h at","no w","d o","u r","ar d","t e","r om","an y","se lf","whi ch","p er","en d","T he","c ould","p re","be en","m ent","ab le","c y","you r","the y","wi ll","w he","f rom","om e","the m","i f","w ould","o w","an ce","i c","th ing","ou t","o d","w ho","w hat","re d","d is","in e","f o","i m","D ar","Dar cy","g o",", ”","a f","the ir","p ar","e t","sa id","k now","an t","p ro","u s","th ou","m an","u l","th is","m a","s ome","on g","at e","su ch","s i","the re","le y","s is","it y","f a","m i","in d","s h","a p","n d","v ed","w ay","p le","Mr s","ne t","it t","as t","mo re","B en","a u","o ther","se e","Ben net","th an","S he","ct ion","mu ch","ou s","B ut","c an","is s","fo re","B ing","Bing ley","an e","i ve","r a","mu st","ha p","v i","d i","u re","sis ter","whe n","en ce","ag e","o k","ad y","J ane","M iss","g e","v en","p l","e very","all y","g re","d id","ti me","H e","in k","u p","v ing","mo st","I t","sh ould","? ”","C o","m ar","d ay","r y","a k","er t","i ly","t en","e l","w is","i ll","al k","s pe","ne ver","e st","th ink","h as","at t","b le","o b","c i","m ed","hap p","ple as","c o","her self","so on","t ter","it e","or t","ag ain","be fore","j e","in s","w or","p r","in t","ic k","on ly","Y ou","l ed","s er","ur n","n er","thou gh","s ay","ha m","we ll","s p","s ha","s ent","af ter","mi ght","go od","f ri","he d","n t","ho w","ow n","c as","o p","t urn","W ick","f i","Wick ham","p t","itt le","d er","m ay","par t","l ittle","w n","p li","r u","ri ed","ne ss","po s","fri end","Co ll","lo ok","gre at","a me","li e","je ct","Coll ins","li ke","ou gh","be ing","ing s","f am","an s","su re","j u","n g","fe el","L y","e ver","di a","Ly dia","for t","ct ed","of f","ar y","au gh","with out","s c","no thing","ma ke","l ong","f ir","w ard","the n","c l","ou nd","ro om","a ch","e ven","i es","he ar","le ss","ert ain","as s","sha ll","it s","m b","you ng","A nd","w o","de ar","fam ily","o ver","be lie","ho pe","con t","f ul","l t","s hi","re e","g r","ad d","g i","b o","c ou","in to","at ed","thou ght","e ar","ine ss","man ner","fir st","to o","b our","g ive","c u","for m","L ady","m or","ou se","mo ther","fa ther","augh ter","a ve","a ther","c ed","is e","pre ss","we ver","c ertain","d aughter","su p","le tter","ne w","com e","t wo","w er","h ouse","ho wever","w alk","li ght","him self","C ather","l ast","s at","ma de","Cather ine","ion s","fe re","The y","i ous","is h","ss i","su r","po ssi","way s","pli ed","e ld","j o","p ort","en g","c our","k ed","re ce","par ti","ch ar","al ways","M y","w h","be g","ab out","on d","com m","a way","m any","ju st","p ass","re as","so l","af fe","su b","l ad","n ing","ap pe","can not","wis h","c le","s on","t ed","t alk","ri age","att ent","I n","g n","s en","ex pe","c ame","g ent","in er","in ed","v is","re st","re turn","are d","b r","an g","un der","i ther","o c","re ss","en ough","au se","m is","re ad","pleas ure","k ind","he n","un t","sa w","L ong","d u","i z","n i","o se","re plied","fe lt","whe re","C h","t t","ct ly","te ll","spe ak","! ”","W e","ll y","lo ve","ward s","G ard","N o","de a","ac qu","possi ble","Gard iner","v our","in de","re l","ce ss","ex press","pre sent","of ten","po int","vi l","a ke","i l","er y","en er","te m","si de","cou nt","L iz","l ady","z y","qu ite","Liz zy","a ce","b ro","d one","t ance","v o","ou ght","po se","my self","end ed","happ y","sub ject","O h","p ri","ate ly","c ul","be tter","gent le","Ch ar","c ried","g u","i ce","u ne","in st","od y","acqu ain","I f","v ent","w r","he ard","mb er","i ved","m at","ha ving","spe ct","c all","e f","con s","lo t","bour n","Long bourn","H er","b ody","g ed","k ing","t ru","w ant","re ally","ti ll","if fere","c ause","ation s","feel ings","a unt","g ener","t ake","in ce","belie ve","sat is","Char lot","Charlot te","L u","e y","g et","h and","m om","n ce","v ant","w ent","it u","wh om","reas on","Lu cas","mom ent","N e","ll ow","ir l","affe ction","W hat","g irl","w om","ver s","for d","ab ly","e p","i am","s to","in ter","pl ace","bro ther","H is","W hen","e ss","t ak","do es","do wn","parti cul","particul ar","st and","ex ce","any thing","who le","mor ning","se en","fi eld","look ed","v al","in u","is ed","wor d","shi re","n at","o s","ter m","id er","ag ree","hap s","sister s","op in","inde ed","c k","d in","f ar","m on","he re","re qu","ain ed","et y","there fore","ction s","ci vil","med i","cont inu","c ar","e as","f ound","m ind","x t","ha lf","de light","even ing","lad ies","appe ar","c er","m en","n or","s ince","t on","u m","ve s","ther field","happ iness","cons ider","Ne therfield","re f","en ed","to ge","st ill","li c","un cle","im medi","itt y","ans wer","gr at","toge ther","K itty","f t","f ind","s po","t we","u d","st r","fe w","ri ght","com p","add ed","sur pr","g ard","to ld","ch i","ac ter","char acter","attent ion","re ly","ne xt","sa me","some thing","s mi","ou b","ob ser","wor ld","bo th","oc cas","opin ion","H ow","T his","com ing","whi le","per fe","fo llow","pro b","mar riage","pos ed","shi p","expe ct","h ome","l one","to wn","to wards","se tt","ent ly","con vers","dis t","know n","see med","up on","lone l","h our","re co","is hed","le ast","le ft","all ow","The re","ment ion","fa vour","mar ry","certain ly","d oub","g one","y ear","it ion","le ave","per son","ment s","si l","wom an","c ir","re sol","be ha","con cer","Co lonel","cour se","acquain tance","F or","e ach","y et","re spect","tem pt","a ir","h ard","t re","u se","it ed","de si","mar ried","rece ived","pass ed","ni ght","convers ation","c ous","h on","l u","th ree","be cause","be twe","ch o","ac k","see ing","immedi ately","occas ion","betwe en","a w","e ither","f u","f ic","m in","o l","in v","the se","ll e","me an","who se","ob ject","beg an","iffere nt","agree able","a ut","k new","er s","al most","con ne","com fort","ance s","gi ven","A s","M ery","P e","Y es","p ur","r an","on ce","li fe","me et","me ans","per haps","go ing","di re","part y","concer n","Mery ton","w on","en qu","sh ort","vis it","L ond","b and","e qu","g ave","h us","he s","an other","re gard","to ok","ro w","know led","ra ther","vi our","friend s","beha viour","Lond on","p at","in te","re p","th ose","ing ly","le t","st ay","qu est","time s","under stand","hus band","T hat","W ill","Y our","i ed","p s","in c","re t","ut e","ad vant","po wer","whe ther","other s","fort une","mber ley","tak en","Pe mberley","l at","t y","li ve","ag ed","ey es","S ir","T o","c or","e k","i gh","p ain","p rom","t ra","ar m","ce pt","de term","ne igh","per su","ob li","again st","sp ir","gener al","continu ed","sett led","cir cu","inte rest","neigh bour","o ple","ar ri","it ation","ne cess","your self","fi ed","hon our","circu m","R os","b us","f er","i dea","l is","se qu","su f","us ed","fa ir","daughter s","cous in","Ros ings","b re","d en","re ady","ad m","ac count","el se","form er","sup pose","sen se","b ack","c are","l ves","s ir","re m","be aut","le s","wi fe","we ek","pe ople","sc ar","ang er","gentle man","perfe ctly","circum st","r ough","re pe","ce ly","hi gh","ne ar","ac cept","ant ly","hear t","il ity","doub t","hard ly","lis ten","an x","st er","se lves","con sequ","ast on","manner s","return ed","pri de","civil ity","Will iam","bus iness","A t","D o","c ur","l p","th rough","de sc","do or","long er","walk ed","ish ment","girl s","car riage","reco lle","won der","b all","c lo","d ifferent","e ce","i th","p a","u su","en dea","at ing","to r","ho od","con v","dis ap","im ag","wis e","turn ed","off ic","expe cted","call ed","hand some","spo ke","advant age","scar cely","O n","a ct","c he","f ast","i able","p end","s itu","re n","su c","su m","con f","fe ar","com pl","im possible","go t","si ble","pleas ed","like ly","jo y","lady ship","H ert","g ra","h um","p ed","p ut","s ho","t able","he ad","he lp","in cl","as ked","be st","com pli","ac hed","per i","see m","pl ay","every thing","op en","feel ing","count ry","itu de","ford shire","Hert fordshire","b l","d are","d ra","e red","i ent","t ing","w a","in ced","me t","pre vent","im port","wis hed","chi ld","B our","M ary","W ith","c ap","e m","i gn","m as","n ame","p i","t r","v id","an ge","ou d","as sure","be y","ce ed","hi ll","ra id","add ress","eng aged","talk ing","For ster","min ut","spir its","conv inced","Bour gh","A f","g lad","m er","s or","s ort","in form","re at","it ing","se s","de cl","con ce","pro per","ma king","cou n","talk ed","gentle men","wr ite","satis fied","mon th","str ong","enqu ir","situ ation","e w","f requ","t s","be ar","con d","fe ct","were d","ur st","af raid","than k","vi ew","belie ved","eng age","br ought","mat ter","nat ur","din ner","lat ter","minut es","Af ter","F it","f in","p ra","z will","in ation","ent ered","ag er","am iable","ju d","fere nce","We ll","surpr ise","fu lly","Fit zwill","Fitzwill iam","c red","h ur","s m","t ri","ou red","en ess","ar i","ad mi","so ci","ro du","am ong","ac knowled","ke ep","int rodu","ser ious","say ing","surpr ised","dist ress","year s","necess ary","usu al","disap point","bey ond","H urst","P hill","a i","c hed","e ager","f our","f ine","l er","r up","s and","x ed","re me","for med","de al","de pend","al so","lo w","end ing","them selves","thou sand","every body","mar k","wis hes","pleas ant","cas e","pos ition","ans wered","sil ence","inv itation","sor ry","sm all","Phill i","d an","s ence","re w","re al","se c","se t","ne ither","po or","The ir","ap pro","ure s","look ing","ound s","speak ing","appear ance","determ ined","consequ ence","endea vour","cred it","c ing","d ance","f an","h y","i g","l ar","l eng","as k","as su","ent i","for ward","me rely","al ity","with in","ur ing","some times","after wards","new s","char m","sen sible","sto od","particular ly","leng th","a im","u e","it ies","li ked","us ion","vi ce","att ach","ser vant","off er","bo ok","wh y","appe ared","ni ece","inst antly","resol ved","desi gn","equ al","offic ers","mas ter","soci ety","Philli ps","a ctly","e ad","h or","i ence","l ing","l augh","se cond","ne y","al one","un ity","ac y","ex actly","fa ce","itt ing","day s","ten ance","ci p","pr ud","op port","cl aim","cour age","vis i","br ing","kind ness","comp an","neighbour hood","arri val","bre ak","adm ir","repe ated","compli ment","coun tenance","c id","d if","e le","f ive","i ght","s light","u red","u ally","y ing","re sent","re comm","at tempt","to ler","is ing","se ver","de red","ab o","lo st","ti m","ex pl","ob je","wor th","young er","ear ly","cu ri","jo ined","No t","exce ed","word s","chi ef","smi le","lu ck","rep ly","obli ged","aston ishment","dra w","opport unity","d ing","k en","s how","in tell","re mo","re mark","le ar","st ed","ne st","me ant","ut ion","po l","thing s","what ever","gi ving","ear nest","rece ive","vo l","iffere nce","satis fa","mention ed","inc reas","ute ly","circumst ances","high ly","assu red","L et","T h","e vent","in tim","en e","as sur","ar r","de ser","ne ed","al ready","ad ed","so le","con du","one y","ex tra","te red","im pro","know ing","si gn","itt ed","pr of","tru th","inter rup","eas ily","ref le","comp any","obser ved","hour s","allow ed","quest ion","beaut y","anx ious","suc cess","inform ation","attach ment","satisfa ction","a de","b er","i ving","l our","m oney","s ing","w at","th us","en joy","as sis","st air","de ce","we l","ab sence","ag o","un s","com pre","do ing","ive ly","co ld","pr in","fort un","sc he","sup posed","walk ing","affe cted","attent ions","express ed","vo id","exce pt","sil ent","cho ose","imag ine","import ance","break fast","H ad","H uns","d read","d den","d uring","g ri","v an","he nd","in do","re gre","re gi","st ru","li ving","su dden","ro ss","com ple","qu ar","any body","pre tt","if ied","who lly","dis position","af fair","att ended","great er","thought s","jo in","beg in","oc cur","tem per","gu ard","acquain ted","ef fect","grat ul","follow ed","hum our","child ren","fan cy","enti rely","visi tor","admir ation","exceed ingly","condu ct","sche me","Huns ford","regi ment","prett y","B right","D er","I s","a ving","a void","b it","c ation","d rew","g y","h u","p he","p ounds","s end","ou ble","se mb","de gre","ne phe","su sp","al th","con cl","mo ti","by shire","any one","per ce","happ ened","sp ite","hear ing","comm on","rel ations","mat ch","want ed","nat ure","eas y","grat itude","pur pose","persu aded","rem ain","incl ination","em p","frequ ently","natur al","ai led","lar ge","curi os","stair s","Bright on","Der byshire","nephe w","G e","a po","b ility","e vid","i de","r id","s ion","w ed","re lie","st ep","ch ange","li br","con fe","con side","con gratul","es pe","sa ke","dis co","dis like","im pat","ous ly","pleas ing","wor k","int ent","fort night","hope s","rel ation","delight ed","follow ing","prob ably","marry ing","desi re","rem ained","prevent ed","conce al","enquir ies","jud ge","admi re","ele g","sever al","compre hend","degre e","curios ity","Ge or","libr ary","confe ss","conside red","E very","F rom","P ar","W hy","e mb","e vil","i red","j our","r un","r ap","w arm","w indo","in f","st ate","ab sol","ag es","com par","will ing","pro ceed","au ght","vi ol","ci ally","pr oud","int ended","sp ent","pos ing","ach ing","express ion","vo ice","tru e","exce ll","term s","favour ite","meet ing","dire ctly","seem s","ign or","tr ouble","pra ise","reme mber","draw ing","gri e","espe cially","jour ney","windo w","P er","a z","b or","f ur","i al","k es","l ay","m iss","p u","p are","s itting","u al","w ro","he alth","re ser","th or","st re","se ss","ent s","ent er","for ced","for get","not ice","su it","ad am","id ence","ab ility","are st","whe never","ul t","ate st","think ing","fi xed","pos al","pos sess","mis taken","reason able","understand ing","prom ised","listen ed","desc ri","month s","acknowled ged","dan cing","abo ve","fortun ate","emp lo","apo lo","fur ther","wro te","! —","A n","C ar","M ari","c ha","d ut","d ro","d ress","d anger","f al","p en","p ause","r on","r ound","t end","t ry","u ch","re jo","or din","se par","de sir","ne g","al arm","ho ped","con ven","ab l","am use","un ic","po sure","com es","qu i","ac compl","ur ch","ard on","gre atest","est ate","part ner","cont r","cu se","mor row","eld est","rece iving","comm unic","tru st","particular s","lic ity","ud ed","fu ll","conne ction","concern ed","equ ally","knowled ge","suf fic","gra ce","wa it","engage ment","ig ence","charm ing","regre t","emplo y","Mari a","fal se","a il","b u","e per","f all","i ety","l ate","v ation","w his","y es","— —","re s","re port","re present","ch ance","ch urch","de ed","su peri","ro ad","com posure","ti ly","ex tre","te st","per t","pre v","if ul","pro posal","us ing","si x","itt en","pt ion","mor ti","just ice","In deed","inst ru","inst ead","wr itten","satis f","tak ing","val u","eas e","delight ful","prob able","expect ation","resol ution","comfort able","suf fer","circumst ance","pa id","sum mer","dif fic","intell igence","arr ass","prof ess","prin cip","excell ent","Per haps","ordin ary","qui et","superi or","extre me","S o","b ow","c reat","g l","l aw","m adam","n one","p ly","r is","r ation","s ic","t ion","v ain","re pro","re ached","le aving","st ri","ent ertain","con st","fe licity","ro wn","am az","un less","ac ed","ex am","pre hen","ic ed","im prud","pro spect","si ght","sis t","pl an","pl ain","est e","happ en","sent i","ful ness","pass ion","son age","wom en","smi led","conne cted","conne ctions","persu ade","week s","anx iety","che er","bl ame","cap able","obje ction","pol it","evid ent","absol utely","S at","c al","c ked","g ing","h int","l and","n ge","o od","p un","p ardon","r ance","t one","t went","w it","re sh","as semb","ha ll","le ad","st y","ve red","li ar","li ber","ent reat","for got","de lic","de cid","fe red","lo ss","qu ick","ke pt","ex c","ex cess","ur day","dis posed","par k","pro ved","pro du","mi les","ind ifference","op ened","part ed","like wise","ang ry","under stood","read ily","affection ate","din ing","requ est","perfe ct","ran k","address ed","disappoint ment","compan ion","resent ment","recomm end","van ity","moti ve","intent ion","emb arrass","polit eness","Sat urday","twent y","A re","A ll","P r","S uch","b ly","c ard","d ine","f ond","i re","n ed","o ld","p on","p ay","s y","s ed","t ried","re ed","en courage","as ha","be came","be sto","or d","st e","ch ose","de sp","ad vice","con vi","con sent","com passion","ke eper","dis tance","dis grace","ind ifferent","au thor","other wise","mar ked","sc ene","gr ac","gr ate","house keeper","rel ated","side s","mat er","gener ally","ey e","um p","spo ken","doub ted","ol ine","quest ions","prom ise","accept ed","gra ve","peri od","pi ct","luck y","remo ved","extra ordinary","wel come","sudden ly","inf lu","Car oline","decid ed","asha med","convi ction","V ery","W hi","a v","b ad","b lic","c en","c ent","d ri","e lo","f ut","f urn","l a","m ine","s it","s we","s im","t ran","w inter","an a","re new","at ive","is on","as e","ed u","or der","no body","se ated","om in","ve x","li ved","ct ing","con desc","mo de","un i","im pert","af ford","fa ct","ind ul","ap prehen","spe e","est abl","pleas e","co lour","say s","sha re","belie f","gi ana","letter s","une as","wr ong","cons ci","far ther","cho ice","aw are","live ly","arri ved","beaut iful","suc ceed","decl ared","tri ump","toler able","Th ough","assur ance","comple te","susp ic","Geor giana","Par sonage","ignor ant","pu blic","dut y","prev ailed","extreme ly","fut ure","triump h","G ood","K ent","O ne","a ven","b en","b ed","f latter","g all","h ind","p ing","r or","r ain","t ain","the s","ou n","is ure","as king","be hind","le isure","ch ang","wi ce","de b","de arest","we ak","su lt","al ter","con ject","con sol","ri but","pe t","un able","ex ert","ex cuse","your s","dis agreeable","af f","est er","pr on","fi ce","great ly","fam i","bo ast","sup port","sup posing","parti ality","wish ing","mis ery","read ing","No thing","pri v","wr iting","call ing","gener ous","Lucas es","consider ing","consider ation","grat ified","obser vation","prob ation","favour able","respect able","mean ing","ret ched","interest ing","aston ished","thank s","hur ry","eager ly","toler ably","lear nt","stru ck","occur red","visitor s","wed ding","eleg ant","compar ison","pare nt","neg le","suffic ient","princip al","creat ure","grac ious","influ ence","impert in",". ’","B e","B y","D id","O f","a li","b ri","d ared","i est","k ward","l au","m n","s day","t as","t wice","u es","y ester","th ir","en cy","to ry","as h","as ed","ar s","it ated","you nge","wi ld","hi g","ent rance","de f","ad v","ho ld","con tempt","ri ch","un d","mu sic","sa fe","ac cor","ex claim","te a","The n","dis gu","et c","ap pli","soon er","wor se","pr ay","sp end","sha me","sent ence","turn ing","fir m","ass ert","belie ving","possi bility","eld er","parti al","cle ar","mis fortune","pri ety","inter ference","stand ing","mon y","find ing","str anger","aw kward","pain ful","determ ine","recolle cted","clo se","clo thes","open ing","frequ ent","natur ally","distress ed","sec ure","servant s","book s","impro ve","wat ch","enjoy ment","dece ived","guard ed","ide as","relie f","apolo g","whis per","Pr ay","grate ful","pict ure","Whi le","ben ef","oun ced","tas te","yester day","younge st","D en","N ow","T ues","U pon","c a","g hed","g ained","h ast","i lt","l in","n y","p ared","v ar","w retched","he ight","in formed","in conven","an ti","re nce","th row","en cour","ar ily","no ble","ve ll","de s","de ep","de lay","ir t","so lic","ab omin","ag reed","am b","un happy","un willing","lo ved","ac cid","ex t","te en","per form","pre ser","pre fer","us al","si lly","ind u","ind ign","ap plied","spe cted","co ach","ins on","look s","long ed","gr ound","gi ble","press ed","parti es","pass ing","attent ive","return ing","express ions","une x","sto p","nat ured","immedi ate","gard en","occasion ally","ran ge","short ly","recolle ction","act ually","engage ments","admi red","disappoint ed","dan ced","appro aching","bring ing","vol unt","intim ate","assis tance","quar ter","begin ning","perce ived","congratul ations","relation ship","rap t","grie ved","amuse ment","accompl ished","valu able","const ant","forgot ten","swe et","apprehen sion","spee ch","appli cation","Den ny","Tues day","accid ent","C an","C ould","H ave","N or","Y et","c up","c ru","c ross","c aught","d ifference","f if","f ree","l ve","l ately","v oured","v ari","he ld","in come","an k","re g","on es","th rown","at i","at es","at ures","to t","ar gu","st ar","st ud","li ps","ut ter","al oud","fe ared","fe llow","am ma","mo ved","pe cted","po st","ain ing","lo se","qu it","ac c","pre t","pre pared","if y","fo lly","fo ol","go ver","par lour","pro te","ul ous","ul ty","more over","ra ce","He aven","att end","att ached","ble ss","co lle","op pos","cl er","wo od","cont ent","sup per","ang u","du e","rel ate","want s","moment s","requ ired","twe lve","str ange","obser ving","acquaintance s","cous ins","inv ited","pur ch","pur su","cor re","tra vell","spir it","interest ed","neighbour s","necess ity","conf usion","conf idence","sho ok","incl ined","dra wn","import ant","vid ed","view s","fin ished","tri f","among st","introdu ce","introdu ction","serious ly","small est","laugh ing","expl an","obje ctions","earnest ly","increas ed","sing le","dread ful","judge ment","possess ion","cha ise","dro ve","desir able","communic ation","instru ment","satisf y","diffic ult","amaz e","este em","delic acy","excess ively","produ ced","ste ady","edu cation","priv ate","lau ghed","unex pected","oppos ite",". —","L ord","L amb","R ey","S ome","S co","S tre","W ho","a th","c ri","c ise","c aut","d r","d ances","f ash","g er","g ate","i ently","n on","p it","p ast","r ing","r it","s our","s pr","s ick","t all","v ag","v ity","v irt","in ing","in sufficient","an n","re cy","re ject","re mind","ou nt","en se","ing u","be sides","ar ch","ar range","it ure","ha bit","no ld","st u","st ead","se ld","li es","li est","li kes","you th","ver ing","de part","de fect","she d","me mor","ut most","al s","al ous","ad vis","id ity","fe ma","ag ing","pe cu","un lucky","es ca","ti c","qu al","te ars","The se","pre ference","dis cu","im p","par ish","mi l","Bennet s","iss ion","He re","spe ed","att ra","att ribut","happ iest","ser vice","good ness","sc ru","room s","hear tily","over come","cont ri","add ition","bo re","char ge","comm end","comm only","subject s","hand s","val ue","since re","consider able","smi ling","obser ve","sett le","dist ingu","tre at","dire ction","enqu ire","stay ing","advant ages","cor di","obli g","listen ing","consequ ently","endea voured","ren dered","compli ments","wa iting","enquir y","hur ried","sec ret","sec recy","niece s","chief ly","remark ably","lear n","increas ing","intim acy","sole mn","interrup tion","concl uded","rid ic","impat ience","run ning","proceed ed","viol ent","miss ion","reser ved","stre et","contr ary","ration al","imprud ent","senti ments","cal m","sty le","exc ited","embarrass ment","encourage ment","elo pe","furn iture","vex ation","chang ed","deb ts","consol ation","pron ounced","negle ct","reg ul","amaze ment","Lamb ton","Rey nold","Sco t","Stre et","virt ue","seld om","pecu liar","esca pe","discu ss","Reynold s","G race","J en","M on","P o","S t","S un","W ed","b id","b lu","b ene","d well","e c","e ight","f ish","f resh","g ence","g ge","g own","i or","i eld","k inson","l am","l ane","m be","p ity","t ress","t ained","y ield","he st","an im","er ror","th ither","th rew","to m","of fered","be come","it self","or ig","st ic","se ve","ce re","ent ail","for ce","de st","ne sday","su spected","su gge","al ong","ad i","con ci","un commonly","sa cri","qu itted","ex is","ex pen","pre par","if ic","ow ed","dis d","dis play","im press","know s","pro ve","ma id","si ve","fa il","fa ult","pl aced","has te","has tily","att ending","ins en","sp ort","sp ond","fri ght","fi g","friend ship","off ended","cont ents","cou ple","give s","certain ty","port ion","rece ption","comm and","comm ission","oc cup","mis er","mis tress","sto ry","continu e","car ry","since rely","ref use","smi les","prob ability","person s","hon oured","min ute","dire cted","pat ience","Your s","inc red","persu as","adm itted","sum mon","conf id","fear s","compl ain","hum ble","bl ind","decl are","pra ct","introdu ced","reme mbe","repeated ly","dif f","recomm ended","expl ained","intell i","deser ve","deser ved","interrup ted","refle ction","refle ctions","bit ter","eleg ance","enter ing","dress ing","ron t","tend er","rejo iced","represent ed","proposal s","assemb ly","author ity","mater ial","suspic ion","gall ant","exert ion","thir d","hig hest","improve ment","lin es","var ious","indu ce","cler gy","corre spond","sour ce","elope ment","Grace church","Jen kinson","Mon day","Sun day","Wed nesday","orig in","remembe red","C ome","C ertain","D ear","H ill","H ouse","a cted","b ted","c it","c king","d ome","d ined","e li","e med","f li","f un","f lat","f low","g ame","g row","k ill","l ine","m p","m amma","p hi","s le","s pre","s ound","s ions","t ê","t aught","u de","v ac","w ar","in n","in fam","in fer","in sist","re ach","re sign","er ing","is es","ar med","it ate","or dered","le st","her s","st up","se at","ve xed","for give","not e","not iced","me as","su per","al together","al armed","id le","con sis","con sole","con firm","fe atures","ab sur","our selves","un just","un known","un pleasant","un doubted","com posed","lo d","qu itting","ex er","hat e","self ish","if ying","od d","dis course","fo ld","pro priety","man age","some what","ap able","see k","di gn","est im","happ ily","co at","sp ared","pos it","gr ad","cu red","form al","sup ply","possi bly","cour t","beg ged","sen ess","mis take","Ch ris","dea th","inde pend","inde bted","express ing","il ities","gu ess","tru sted","tak es","opin ions","car ried","um er","ref usal","occas ions","follow s","cir cle","beha ved","tre ated","cho sen","concern s","won dered","enqu ired","inc apable","suf fered","den y","gentleman like","door s","recolle ctions","usu ally","imag in","offic er","sho cked","open ly","pi ece","proper ly","proper ty","coun ter","strong ly","thank ful","matter s","acknowled ge","eager ness","hor ses","abo de","remark s","pol ite","assur ances","extra vag","assis t","choose s","quar rel","hu man","concl usion","remain ing","relie ved","disco ver","impat ient","Geor ge","evil s","warm th","warm ly","reser ve","apolo gy","An ne","separ ation","employ ed","diffic ulty","quiet ly","repro ach","imprud ence","senti ment","pun ct","wit ness","besto w","besto wed","la id","tran qu","uneas y","impertin ence","adv ise","accor ding","exclaim ed","watch ing","height ened","inconven ience","encour aged","solic itude","indign ation","volunt arily","cru el","ati gu","tot ally","fool ish","gover ness","prote sted","explan ation","dr ink","fash ion","arrange ment","memor y","fema le","scru ple","commend ation","Scot land","Po or","lam ent","seve re","sacri fice","fig ure","persuas ion","gallant ry","clergy man","dome stic","fli r","spre ad","tê te","infer ior","absur d","; ”","? —","A R","A b","H o","I m","K ing","L od","M ay","O ur","b ir","b ert","c re","c of","c am","c ared","e ti","f iner","f ret","f atigu","g g","g ment","h one","l ance","l iness","l angu","n u","o we","r one","r ising","s al","t al","v ous","w ound","x ion","y ed","in ju","in vol","re semb","ou nce","en ced","en sion","be tr","ar ise","ll able","or y","st i","se x","om y","li bert","for bear","de m","de fic","de liber","not ion","we ight","su spect","ut ation","al tered","con ver","con sult","fe e","ri mony","ro se","ab hor","ab ilities","am end","pe red","pe ace","un ited","un affected","un reasonable","un comfortable","un fold","com ed","lo so","ti red","qu ali","are r","ac tory","ke t","ex cl","ex pose","per ver","pre ten","pre ju","pre tend","will ingly","im probable","pro v","pro of","pro vided","ma kes","some body","si bility","ap probation","see king","than ked","ous ed","vi ll","vi de","di ce","att ack","ob st","ci ed","je alous","wor st","int ending","sp are","fi re","part ing","friend ly","less ness","hope less","cont ain","cont ained","gr and","bo y","eng ross","cle ver","rest rain","pleasure s","kind ly","where ver","tt ing","tell ing","point ed","il ar","bro ken","Char les","inst ance","inst ant","vent ure","vent ured","ef fort","tru ly","want ing","get ting","inter val","civil ities","ref using","ref resh","spo t","expect ations","mention ing","resol ving","tempt ed","tempt ation","use less","fic ation","object s","dire ct","dire ctions","pat ron","pat rone","former ly","near ly","ball s","clo sed","different ly","pa per","disap probation","On ly","hum oured","sho p","wa ited","mer it","fin ally","fin ite","jud ged","keep ing","depend ence","appro ach","endeavour s","fan cied","compan ions","worth y","luck ily","show ed","remo val","remark able","sign ific","wat ched","wel comed","prin ci","dread ed","stru gg","comple xion","affair s","scheme s","moti ves","perce ive","congratul ate","disco very","disco vered","conceal ed","Par k","ignor ance","descri be","descri ption","rejo ice","desir ous","false hood","res ses","six teen","satisf actory","profess ion","gl ance","entertain ed","este emed","cheer ful","cheer fulness","entreat y","embarrass ed","card s","sim ilar","renew al","order s","condesc ension","uni vers","establ ished","uneas iness","succeed ed","complete ly","alter ation","conject ure","fami liar","fami lies","parent s","ext ent","rapt ures","vari ety","stud y","content ed","twelve month","spr ing","stu di","blu shed","dwell ing","impress ion","fright ened","Certain ly","eli gible","flat tered","phi loso","undoubted ly","lod g","Lod ge","cof fee","resemb lance","betr ay","libert y","preju dice","patrone ss",") ,",", —","A y","C on","E x","E ng","H as","H aving","I N","J ame","L ou","L ak","N ever","R e","T ill","U n","W here","a is","a part","a ctions","b an","c her","c ast","d ar","d ingly","e u","e con","e mo","f it","f ying","f itted","h und","i a","l an","l oured","l eness","m ut","p al","p hy","r ity","r oused","s ad","s ong","s ink","s co","s often","s low","t our","t mas","u lly","v ary","w and","— “","— ”","in j","in finite","re sto","re conci","en umer","is a","as ing","as pe","ed ing","be long","ar is","ar ti","it ia","no ve","se es","ce ased","ly ing","ve lo","wi de","ent ailed","de t","de ad","de te","de ference","we ather","ut tered","all uded","ir ing","id ed","ri ver","ri ages","ag itation","am id","am used","mo der","un fortunate","po c","es cap","ac compan","ex peri","ur b","ur ged","te asing","per formed","per mission","pre sence","pre pare","dis pleasure","dis cer","ant s","pro portion","us h","sis ted","mi le","sh ar","ap ply","ra cted","ra ised","vi le","di ct","ok ing","pl ed","every one","gre w","gre ss","wis est","co p","co loured","je ction","cas es","ng th","off en","mb led","gr ounds","add resses","ear liest","press ing","house s","ious ly","eng aging","just ify","affe ct","sub st","sen s","du ll","ni ce","Gardiner s","count y","pri vile","gu est","mat rimony","What ever","inter course","down stairs","continu ally","car riages","appear ing","ref used","grat ifying","dist in","reco ver","reco vered","allow ing","respect s","use ful","desi red","occasion al","inv ite","pur suit","stay ed","power s","cor um","cor ps","obli ge","obli ging","honour able","bre eding","den ial","adm it","repe ating","accept able","recolle ct","clo ck","sum ing","compl ais","sho cking","table s","play ing","name s","decl ar","decl ined","conce ited","strong er","cond ition","hur t","distress ing","ai red","appro ached","lar ger","design ed","hor se","claim s","expl ain","show n","increas e","Th ank","impro ved","interrup t","dece ive","susp ense","purpose ly","intent ions","proceed ing","viol ently","window s","miss ed","stre ngth","cha ir","dro p","dress ed","try ing","separ ate","employ ment","morti fication","morti fying","valu ed","profess ions","repro of","entertain ment","plain ly","assemb led","lead ing","delic ate","sy mp","sy llable","renew ed","mode sty","indul gence","establ ishment","impertin ent","disgu st","anti cip","delay ed","abomin able","perform ance","stop ped","fif ty","acc us","wood s","purch ase","pursu e","travell ing","non sense","remind ed","depart ure","advis able","qual ities","speed ily","distingu ished","oblig ation","expen se","prepar ing","disd ain","miser able","resign ed","exer cise","grad ually","Chris tmas","independ ence","tranqu ill","flir t","Ab out","Ho wever","hone st","forbear ance","abhor rence","perver seness","vill age","princi ple","Ay e","Jame s","Lou isa","Lak es","hund red","soften ed","aspe ct","accompan ied","symp tom",". ,","; —","A h","A llow","J ones","M o","N ay","S ince","T e","T ho","T wo","a id","a ily","b b","b ar","b are","b ought","b right","c at","c is","c hes","c ret","d ed","d om","d we","e v","e at","f l","f are","f rank","f ront","g en","g ain","g lo","g rown","h ar","i ally","i led","i ans","m ing","m it","m end","n ar","n ay","n am","o h","o t","p ap","r ate","s l","s in","s ly","s per","s pl","s ought","u le","v ance","in sol","in ses","an of","an cy","re en","re li","re cent","re sult","ou ched","th in","th od","en v","of fice","be ll","be low","ar t","ar ose","ar ising","it led","it ary","it ations","or te","ha u","ha ck","le tting","no on","st ation","st ared","ve mber","ve sti","li er","li hood","wi lf","hi ther","for th","for bid","de vo","de fer","de corum","ne arest","ne arer","me re","me ss","me lan","me thod","we lf","ut ed","al ac","with drew","ad van","con ve","ri c","ri de","ab rup","ag itated","mo ving","un civil","un common","by e","lo ver","ac ing","ac ity","ac company","ac ross","ac ency","ex ten","ex ped","ex posing","ex ec","te ach","per ate","per sever","pre vi","pre ced","ic ing","ic al","dis h","dis char","dis advantage","dis cret","im put","pro vo","pro posed","pro test","pro gress","pro sper","si z","mi xt","sh ut","sh ru","ap parent","Bingley s","ci de","ci ous","pleas antly","co st","int end","int ru","ham ber","sp ending","op posed","fi x","part s","pli cit","ru in","Coll inses","like lihood","off ers","less en","lt y","add ing","cu mb","ish ments","just ified","vis its","We re","No vember","rel ating","present ation","point ing","ener gy","tem pered","gu ilt","cause s","reason s","reason ably","Ne ither","place s","requ iring","ud ing","str ang","expect ing","dist ant","concer ning","respect ability","tre es","cho ly","mean while","visit ing","pat ched","prom o","tra ce","else where","repe at","Do es","cur t","recolle cting","imag ined","act ual","che cked","conf ined","fear ful","compl acency","bl ush","cap ti","pi anof","mer cen","conce it","enquir ing","fin ish","appro ve","endeavour ing","enti al","hor ror","prud ent","prud ence","visi ble","curi ous","event s","arr ang","deser ving","impro priety","refle ct","fortun ately","join ing","hu mil","concl ude","remain s","evid ently","step s","impat iently","rap id","bor n","bor ne","thor ough","suit able","descri bed","alarm ing","conven ient","accompl ishments","suffic iently","ail ing","bu le","whis t","represent ation","morti fied","princip ally","ris k","stri ke","exam ple","cal cul","pun ishment","liber al","produ ce","ste ward","disgrace ful","mater ially","cen sure","dri ven","la wn","sim ple","condesc ended","uni form","afford ed","indul ge","consci ous","consci ence","gall ery","weak ness","pet ition","hold ing","accor dingly","apolog ise","benef it","hast y","des ert","deep ly","sweet ness","cross ed","argu ment","star t","trif le","trif ling","caut ion","caut ious","defect s","attribut ed","treat ment","solemn ity","ridic ule","regul ar","discuss ion","bene ath","cere mony","sugge sted","insen sibility","occup ied","summon ed","pract ice","diff idence","intelli gible","bitter ness","induce ment","correspond ence","sle ep","vac ant","meas ure","consis ten","manage ment","dign ity","estim ation","imagin ary","bir th","cre ated","eti es","langu age","nu mber","tal ents","dem and","defic ient","amend s","unfold ed","quali fied","excl am","preten sions","obst in","engross ed","restrain t","refresh ment","philoso phy","lodg ings","Eng land","econ omy","emo tion","mut ual","enumer ating","aris en","arti cle","nove lty","escap ed","distin ction","complais ance","declar ation","tranquill ity","Te ll","Tho se","cat ch","dwe lt","pap a","spl end","vesti bule","melan choly","welf are","alac rity","advan ced","abrup t","discret ion","provo ke","mixt ure","pianof orte","mercen ary","humil ity",", ’","B o","C l","C om","C ap","F our","G od","M any","M uch","S hall","T ru","T hur","U nd","a the","a wn","b red","b ound","c r","c and","c ough","c row","c hamber","d on","d ir","e ur","f ing","f ain","f reed","g ro","g ai","g low","h arm","i ld","i ble","i ece","i ency","i vity","l s","l st","l oud","l ord","m s","m ir","m ain","m ount","n k","o lly","o bey","p ha","p ended","r ained","s ou","s cold","t ong","t ouched","u ced","u ously","v ou","v it","v all","w ink","w cast","y awn","he av","in no","in her","in justice","in signific","in cumb","in consisten","an ch","an cing","re c","re nd","re vi","re sist","ou th","er r","en su","at one","at ory","to p","to ward","as on","as sent","as ide","ing en","be have","be half","be coming","be comes","ar ts","it er","it al","it ating","ll ies","or ned","ha b","se le","se iz","se arch","se cured","se ason","li ation","li ves","li ft","hi b","ent itled","ver ted","for ci","de pri","de live","de test","de tain","de cide","de pended","she et","me at","me st","we st","su nk","al o","his tory","with held","all i","all ied","all usion","ir r","ad ri","ad op","id d","id able","id ge","ho ping","con tem","con ference","fe t","ri ce","ab sent","ab road","ab und","ag ger","am ing","am using","un as","un ion","un like","un likely","un necessary","un connected","un pardon","un welcome","un gracious","un guarded","un willingly","un worthy","ain s","com pose","mu lt","lo wer","lo vers","ti re","qu et","qu adri","ac ked","ac utely","ac cuse","ac cent","hat ed","per pet","per usal","end ured","pre cip","ow ing","ow ner","red uced","dis pleased","dis satisfied","dis liked","dis interested","dis patched","ine vit","im posed","et on","pro di","pro cured","pro vide","us ions","ul ar","ul ts","ma li","some where","sis ting","fa ith","fa ults","mi ld","sh y","ap ham","than king","di e","di vers","di vided","pl ation","It s","ak ened","spe ction","est ates","think s","ob tained","co olly","ins pi","wor ked","You ng","You nge","ser mon","ner ves","ner vous","sha red","sha ken","der ing","feel s","ward ed","even ings","over spread","form ing","form idable","mor al","sup position","last ed","beg ins","sol itary","gent leness","vis ited","rest ed","br anch","br idge","mis understood","read iness","point s","une qual","inst ances","ef f","ef ly","king dom","Ne wcast","affection s","affection ately","agree ment","agree ably","continu ance","found ation","mind s","delight fully","cer ity","nor th","obser v","reco vering","cir cul","occasion ed","aw akened","comfort s","regard ed","rep ine","husband s","live liness","ek s","pain s","prom ising","tra de","necess arily","bre ath","sense s","care ful","beaut ies","accept ing","accept ance","pa th","pa le","conv ince","imag ination","wise ly","offic ious","handsome st","act ive","act ivity","che ck","che eks","situ ated","conf used","gra vity","put ting","head strong","With out","cap ital","cap rice","sor row","introdu cing","charm s","design s","claim ed","ele v","slight ly","attempt ed","attempt ing","show s","show ing","assur ing","deser ves","need less","sole ly","wat er","enjoy ing","assis ted","occur rence","guard ians","fancy ing","hu mi","hu mbled","perce iving","confess ed","Every thing","Every body","emb r","rap idity","inf li","absol ute","stre am","Car ter","ron ted","rejo icing","abl eness","contr ast","contr adi","employ ments","bu y","bu ild","res idence","profess ed","gl ancing","sic al","stri king","amaz ed","exam ined","exam ining","prospect s","happen s","hint s","lead s","entreat ies","quick ly","excess ive","recommend ation","pay ing","grave ly","decided ly","dri ve","dri ving","furn ish","succeed ing","suspic ions","flatter ing","deb t","aff ability","aff ront","support ed","bri de","bri efly","hig her","def y","adv ance","exclaim ing","disgu ise","misfortune s","apolog ising","benef ited","hast ened","inconven ient","encour aging","abomin ably","preser ve","preser ved","volunt ary","Nor th","fif teen","free ly","argu ments","star ted","stud ying","pret ending","attend ance","bless ed","bless ing","colle ction","travell ers","sick ly","ann ounce","reject ed","stead fast","imp ul","imp ud","mil itia","attra ctions","attribut e","contri vance","distingu ish","cordi ality","ridic ulous","calm ness","bene vol","fish ing","anim ation","cere mon","dest ined","sugge st","exis t","insen sible","sport s","carry ing","complain ts","intelli gent","origin al","kill ed","war n","infam y","infam ous","stup idity","confirm ation","extravag ance","extravag ant","witness ed","cruel ty","scruple s","cam p","fatigu e","sal utation","inju red","deliber ation","conver se","jealous y","grand eur","patron age","betray ed","IN E","apart ment","cher ished","sco re","slow ly","infinite ly","amid st","experi enced","discer n","shar p","cop se","anticip ated","honest ly","bb ery","fl utter","frank ness","nar row","sin cerity","insol ent","hack ney","exten sive","exec ution","preced ing","imput ed","protest ing","siz e","shru bbery","strang ers","promo te","curt se","capti v","simple ton","splend id","Cl apham","Cap tain","Tru e","Thur sday","dir ty","freed om","pha eton","vou ch","vall ey","heav y","incumb ent","forci bly","delive red","contem plation","unpardon able","quadri lle","prodi gi","Newcast le","occurrence s","! )",": —","A no","A gain","B et","D INE","E as","E ps","F ive","G ould","G ener","G AR","H ap","I A","J une","L L","L a","L e","M adam","M amma","O ther","P ardon","R am","R ob","S er","S car","T en","T is","T ake","W as","W ould","a le","a we","a thing","b on","b ent","b urst","c do","c us","c ence","c ry","c ert","c ated","c ended","c rit","d s","d y","d up","d ying","d aily","e el","e lly","e tor","e test","f id","f ill","f ru","f light","f aced","g ar","g al","g ay","g od","g aining","i er","i vid","i atures","k iss","k eness","l ence","m outh","m idd","n up","o ted","o live","o ting","p y","p ou","p om","p ad","p ous","p ence","p age","r ou","r usion","s an","s ley","s well","s lin","s gate","s kill","t u","t id","t reas","t ition","u g","u ct","v able","v ic","v ul","v ast","v ive","w him","w ine","w ind","z z","in ct","in cess","in vent","in civility","in support","in valuable","in habit","an te","re ve","re ver","re ven","re ck","re view","re aching","re prehen","re spected","re cit","re tired","re warded","on s","on y","th ly","en ing","en ab","en es","en est","en counter","en velo","at ious","at tor","at ively","is y","as certain","as cended","and alous","be longed","be holding","ar my","it es","it ute","it ality","ll ed","or nam","ha ir","no ise","no isy","st on","st ir","st ro","st if","st out","st ately","st ret","st ating","se ven","se cur","se ren","om er","ce ase","li d","li king","li ating","li keness","wi do","wi cked","hi p","ent re","for given","for giving","de fi","de ign","de eper","de cent","de mn","de tained","de velo","de jection","de cis","not ions","ne at","me mber","we en","we ary","we alth","su me","su ited","ther n","with drawn","ct ive","ir k","ad ap","ad orned","id ing","ho t","ho sp","so lid","con qu","con do","con fir","con quest","con stru","con sist","con cise","con cert","con demn","ri pt","ro b","ab using","ag ue","am ount","mo ve","un ti","un concern","un settled","un consci","un generous","un reserved","un happily","un luckily","un deserving","ght y","po ol","po wered","com pr","com plied","com petition","mu slin","sa ve","sa ved","sa ving","lo tter","lo ck","ti er","ti als","ti coat","qu e","ac ced","ke ts","ke enest","whi lst","ex act","ex plicit","ex hib","do ck","ur gent","ur bed","te lp","pre sum","pre aching","ow s","ow al","ic ally","od ious","dis p","dis respect","dis credit","dis composure","dis contented","dis missed","dis concert","fo llies","im partial","par sonage","pro pose","pro pri","pro cur","man telp","ul ity","si p","fa ulty","fa iled","ind ic","ind ivid","sh an","au di","can v","fore ver","ane cdo","ra ising","vi lly","di ed","di vide","di verted","sister ly","ok ed","pl ans","pl acing","pl ague","up per","ob tain","ci villy","med itated","med itating","happ ier","pleas an","co ar","co lonel","co ol","co vering","int rusion","after noon","fri vol","own ed","op pose","op position","fi ght","der ive","ru de","lie ve","sure ly","ju m","off end","off ending","off ense","sc reen","sc enes","sc andalous","sc ript","mb ling","mb rance","dear ly","over look","over came","over heard","over looked","over thrown","over powered","cont ribut","cont racted","lt ry","gr ou","gr ity","add s","bo x","bo ld","into ler","ear lier","form ality","house maid","house keeping","walk s","walk er","sur round","jo ke","port ra","wh ite","just ly","sol itude","sub mit","ted ly","attent ively","sen sical","gent eel","mis understand","mis chief","read er","speak s","love ly","acqu ies","inde lic","rel ative","rel ates","rel uct","present s","often er","vo lu","gu e","wr iter","hand ed","moment ary","inter view","inter mission","nat ive","agree ing","ck s","far m","here after","requ ire","continu al","eas iness","found ed","appear s","nor thern","consider ably","ref rain","uncle s","answer ing","answer able","comp ly","comp ared","comp lying","character s","oub tedly","sett ling","convers ing","dist urb","dist racted","reco very","favour ably","sil ently","resol utely","course s","respect ing","min utely","min iatures","inv iting","mean ly","object ing","Pe ople","equ i","hes itation","hes itated","hes itate","inte grity","rep ent","rep utation","rep aired","power ful","lat er","live liest","prom ises","cept ion","determ ination","bus ily","lis t","bre ach","den ied","account s","account ing","care fully","repe tition","listen er","through out","desc ent","desc ended","wonder s","wonder ful","pa used","tor s","tor t","act ing","fear ing","sho ot","seem ing","open ness","bl aming","ange l","hill s","address ing","mer ry","conce ive","bear ing","view ing","jud ging","acknowled gment","keep s","disappoint ing","reme mbrance","depend ent","pleasant ness","Philli p","poor ly","appro ved","hy poc","assu me","offer ing","hor rid","second ly","face s","admir able","compliment ed","slight ed","slight est","resent ed","expl aining","reply ing","remo ving","lear ned","need ed","sign ify","refle cted","question ed","success ful","sing ing","dece ase","compre hen","except ing","gri ef","regre ts","quar tered","effect s","effect ually","regiment als","admire r","comprehend ed","confess ion","compar ative","compar atively","willing ness","viol ence","grie v","grie ve","grie vous","bor row","bor dering","pu zz","reser ves","suit ableness","pen s","pen et","tend ency","separ ated","neg ative","conven ience","amuse ments","accompl ishment","partner s","communic ate","communic ated","wait er","bu ilt","fall en","fall ing","—— ,","instru ctions","bow ed","creat ures","ration ally","const antly","exam ination","plan ned","objection able","pun ish","quick ness","exc ite","pon ies","desp ise","desp ised","desp aired","grate fully","grave l","av owed","av owal","elo qu","swe etest","edu cated","condesc end","spee ches","colour ing","public ly","chang ing","alter native","conject ures","consol ing","pet ticoat","aff li","pron ounce","priv ately","hurry ing","Be fore","Be lieve","thir ty","def end","safe ly","disgu sted","assert ion","assert ions","clear ly","awkward ness","whisper ing","var ied","throw ing","des perate","unwilling ness","ext ended","prefer ment","prefer red","stop ping","quarter s","rapt ur","accident al","accident ally","cru elly","tot al","post script","colle cted","content ment","purch ased","unexpected ly","Some times","non sensical","pit ied","pit iable","ann ounced","stead ily","advis ed","tic kets","attra ction","attra cted","contri ve","contri ved","hands omer","cordi al","cordi ally","oblig ations","secret ly","peculiar ly","discuss ed","bid ding","yield ing","anim ated","error s","adi eu","exis ted","expen ses","disd ained","display ed","incred ulous","incred ible","incred ulity","summon s","confid ent","tender ness","source s","grow ing","stup id","meas ures","composed ly","dign ified","posit ive","posit ions","guess ed","polite ly","human ity","Anne sley","punct ually","punct ual","lament ations","inferior ity","fatigu ed","wound ed","inju ri","invol ved","prov oking","prov oked","attack s","boy s","interval s","signific ant","strugg les","univers al","univers ally","studi ed","ban ish","ban ished","sink ing","vary ing","wand ering","resto ration","wide ly","det ached","poc ket","apply ing","offen ses","offen sive","subst ance","sens ation","sens ations","privile ge","privile ged","drop ped","accus ations","Mo st","fare well","glo om","reli ance","env y","hau ghty","station ed","wilf ul","devo ted","mess age","persever ance","previ ous","dischar ged","prosper ity","calcul ated","uniform ly","exclam ations","obstin ate","Bo th","Und oubtedly","cand our","crow ded","fing ers","gro ve","obey ed","tong ue","insignific ance","rec tor","rend er","revi ved","hab its","sele cted","depri ved","alli ance","irr itation","adop t","fet ch","abund antly","unas suming","perpet ually","inevit able","faith ful","divers ion","observ ations","guardians hip","build ing","steadfast ly","impul se","impud ence","benevol ence","ceremon ious","exist ence","curtse y","prodigi ously","Ano ther","Bet ween","DINE R","Eas ter","Eps om","GAR DINER","Le wis","Ram sgate","Rob inson","bon net","fid get","midd le","nup tials","pou ltry","pom pous","pad dock","rou te","san ction","tu mult","tid ings","vul gar","insupport able","inhabit ants","reve al","reprehen sible","recit al","envelo pe","attor ney","stif f","stret ch","secur ity","seren ity","wido w","defi ance","deign ed","develo p","adap ted","hosp itality","confir med","consist ent","unti l","unconsci ously","lotter y","presum ption","disconcert ed","propri etor","procur ing","mantelp iece","frivol ous","intoler able","A c","A l","A m","A r","A di","B l","B ar","B ro","B es","B rit","C he","D E","D e","D on","D uring","E N","E ven","F ar","F ir","G o","G ro","G ive","G ret","G reen","H arri","H agger","I LL","J u","J an","J oh","L ittle","M Y","M at","M ic","M ake","M il","M ount","M arch","N i","N on","N ob","N ext","O b","O c","O r","P ut","P ride","S ay","S ure","T ease","V ain","W he","W ar","W ILL","a x","a ction","a like","a live","b ing","b al","b ill","b urn","b raid","b low","b ank","b athing","c ity","c ure","c ary","c ising","c rown","c uni","d ur","d im","d ate","d ated","d ouble","d omin","d irt","e re","e pe","e us","e vi","e min","e ating","f f","f on","f le","f lo","f ate","f ra","f ted","f lu","f lying","f ronted","g li","g am","g ning","g ments","g acy","g ross","g ates","g aily","g athe","h ang","i e","i us","i pt","i let","i bly","i ancy","i tors","k ni","l ag","l aughter","l ingly","l tered","m ag","m ble","m ort","m ise","m itted","n a","n al","n ine","n ings","n umer","o the","o on","o st","p or","p our","p ti","p ane","p ure","p air","p ack","p ular","r m","r s","r am","r ant","r age","r att","r ated","r ise","r allied","s of","s om","s ne","s ven","s mar","s ider","s cho","s ses","s park","s angu","s ket","s ided","t ac","t ite","t ax","u ine","u ity","u ous","u ary","u gn","u ating","u ality","u ber","v oc","v ative","v indic","w are","w ave","x ity","y m","z en","z ed","’ ,","“ ‘","“ ’","he aven","in ve","in dis","in express","in attention","in fancy","in suffer","in disposed","in sult","in attentive","in voluntarily","in spection","in sip","in comprehen","re sis","re el","re med","re vo","re call","re called","re ference","re vol","re pressed","re jection","re suming","re tire","the cary","ou l","on ed","er ation","th read","th reat","th ood","en vi","en sure","en sign","en sed","at ure","at tered","to med","to ilet","is ion","is ite","is tic","is ms","as y","as es","as ol","as perate","ed ge","ed ged","be fall","be wit","be loved","be held","ar ro","ar ound","ar rested","it ance","it ful","it ions","it ative","it iously","ll s","ll ing","ll iner","ll iancy","or n","ha el","ha ute","le br","le ase","st ated","st ren","st aid","st asy","se cl","om en","ce ls","ce lebr","ch in","ch an","li al","li very","li able","li ous","li gence","li fted","hi de","ent ious","ver t","ver ish","ver ty","ver acity","for fe","de li","de parted","de cen","de pressed","de ception","de epe","gh thood","she ltered","we t","we ar","we ig","su red","su aded","al as","ct s","all usions","all evi","ir re","ir rit","ad venture","id ance","id ious","id leness","ho te","so led","so othe","con ju","con cur","con sign","con dem","fe ll","fe ather","fe ature","fe verish","ri cle","ri val","ro de","ro bor","ro yed","ab us","ab use","ab used","ag on","our s","am p","am ed","am ple","am ply","mo vable","pe ev","pe cuni","un k","un ab","un do","un ction","un ite","un well","un certain","un felt","un happiness","un account","un feeling","un avoid","un natural","un concerned","un av","un favourable","un fit","un fortunately","un suitable","un forgiving","po ll","po et","po pular","po verty","es y","es ign","sa ctions","sa kes","lo o","lo ving","ti an","ti de","ti es","qu ate","qu ality","ac he","ac co","ac hes","ac ute","ac les","ac cur","ac ulous","whi ther","whi che","ex cu","ex posed","ex hau","ex agger","ex pence","ex uber","ex asperate","hat es","do ings","do zen","ard s","ard ently","te ar","te aching","te ased","per s","per ple","per former","per sist","per sisted","end less","pre y","pre hend","pre possession","pre cious","pre sume","pre domin","your selves","if iable","if ully","ic s","out stri","dis cour","dis put","dis engaged","dis courage","dis inclination","dis posal","dis trust","dis grac","dis charge","dis advantages","dis composed","fo ot","fo oting","im pose","im proper","im plicit","im ony","im movable","go es","af fir","af fin","their s","par ade","par asol","par cels","pro ject","pro vis","us age","man or","man sion","some how","si gh","si bly","there by","there upon","sis ts","mi x","mi xed","mi lliner","ind ire","sh or","ap side","ap sed","ap prehend","ple ad","au gment","fore seen","vi g","vi vac","di lat","di alo","when ce","ence ment","ok s","pl ent","pl ac","pl ant","every where","up braid","mar ket","ak ing","ten ing","ten ants","el apsed","ill u","ill ness","spe ci","ob tru","ob sequ","ci es","ci ety","ci pat","ci lious","med itation","med itate","pleas es","co inc","co vered","je wel","ins ince","wor n","pr one","int ently","int ric","ser ve","ser ving","sp ass","sp ace","sp here","sha de","sha pe","sha ke","sha king","good will","op pressed","turn s","turn pi","fi lial","der ision","part ly","part ake","pli es","ru le","ru ined","ru den","great ness","lie u","off ence","sc attered","long ing","fir mest","cl ass","even ness","hear ted","hear ty","less on","ass ed","ass id","mb arrass","wo re","wo ody","over hear","over power","over flow","cont ro","cont aining","shi ft","bo ard","bo tt","bo som","thought less","thought fulness","thought lessness","ear l","form s","mor nings","sup press","sup plied","sup pressed","light ed","last ing","sat in","sur ve","sur vi","sur vive","sur mise","cour ted","rece ipt","beg un","beg ging","about s","comm ended","comm encement","pass age","pass ages","sub sisted","sub sisting","appe al","appe tite","cle ared","son s","In stead","gn iz","sen sibility","sen sibly","rest rained","return s","br ain","br ink","under gone","mis es","mis conduct","mis represented","mis takes","kind er","hen ce","love s","love liness","acqu it","acqu ired","express ive","express ively","present ed","present ly","bro ke","pri or","pri ce","gu ide","gu ided","gu idance","une mbarrass","inst inct","acquain t","mat es","mat ive","sto rm","brother s","brother ly","ess enti","ess ential","stand s","exce l","term ination","here abouts","continu ing","car ing","mind ed","delight s","lic ence","grat ify","spo ts","spo ilt","right ly","comp ati","gard ener","character istic","smi lingly","obser ver","world ly","perfe ctions","sett ing","dist urbed","reco gniz","allow ance","favour s","favour ites","leave s","person al","resol ve","For give","tempt ations","hard ship","tre ating","tre spass","cho lls","ack en","aw ed","aw ful","aw ake","fic ations","inv ari","conne ct","comfort ably","pur port","meet s","meet ings","dire cting","regard less","rep ul","rep ining","rep aid","rep uted","rep ugn","inc ur","inc ensed","ret ro","ret ained","ret aining","cor robor","pain t","pain fully","prom pt","tra des","determ ining","general ity","neighbour ing","arri ve","honour s","circum spection","fer vent","fair ly","bre ast","den oted","account ed","back gam","care s","care less","care lessness","scar let","doubt s","doubt ing","doubt less","doubt ful","ster ity","aston ish","cur ricle","desc ending","wonder ing","wonder fully","clo sure","pa les","pa using","tor ment","handsome ly","advantage ous","advantage ously","che cking","fast idious","joy ful","sho ck","head ache","incl uded","incl uding","play ful","play ers","play fulness","With in","em pt","tr ans","tr aced","tr unk","vid ing","mer ited","inform ing","decl ine","bear s","dinner s","pra ised","pra ises","jud gment","cred itors","tri m","tri al","soci al","acknowled gments","four th","fine st","depend ing","mark s","pleasant ry","credit able","forward ed","charm ingly","master s","laugh ingly","break ing","admir ing","resent ful","resent fully","recomm ending",
[...]
